{
  "version": "1.0",
  "truncation": {
    "direction": "Right",
    "max_length": 512,
    "strategy": "LongestFirst",
    "stride": 0
  },
  "padding": {
    "strategy": {
      "Fixed": 512
    },
    "direction": "Right",
    "pad_to_multiple_of": null,
    "pad_id": 0,
    "pad_type_id": 0,
    "pad_token": "[PAD]"
  },
  "added_tokens": [
    {
      "id": 0,
      "content": "[PAD]",
      "single_word": false,
      "lstrip": false,
      "rstrip": false,
      "normalized": false,
      "special": true
    },
    {
      "id": 1,
      "content": "[UNK]",
      "single_word": false,
      "lstrip": false,
      "rstrip": false,
      "normalized": false,
      "special": true
    },
    {
      "id": 2,
      "content": "[CLS]",
      "single_word": false,
      "lstrip": false,
      "rstrip": false,
      "normalized": false,
      "special": true
    },
    {
      "id": 3,
      "content": "[SEP]",
      "single_word": false,
      "lstrip": false,
      "rstrip": false,
      "normalized": false,
      "special": true
    }
  ],
  "normalizer": null,
  "pre_tokenizer": {
    "type": "ByteLevel",
    "add_prefix_space": false,
    "trim_offsets": true,
    "use_regex": true
  },
  "post_processor": {
    "type": "TemplateProcessing",
    "single": [
      {
        "SpecialToken": {
          "id": "[CLS]",
          "type_id": 0
        }
      },
      {
        "Sequence": {
          "id": "A",
          "type_id": 0
        }
      },
      {
        "SpecialToken": {
          "id": "[SEP]",
          "type_id": 0
        }
      }
    ],
    "pair": [
      {
        "Sequence": {
          "id": "A",
          "type_id": 0
        }
      },
      {
        "Sequence": {
          "id": "B",
          "type_id": 1
        }
      }
    ],
    "special_tokens": {
      "[CLS]": {
        "id": "[CLS]",
        "ids": [
          2
        ],
        "tokens": [
          "[CLS]"
        ]
      },
      "[SEP]": {
        "id": "[SEP]",
        "ids": [
          3
        ],
        "tokens": [
          "[SEP]"
        ]
      }
    }
  },
  "decoder": null,
  "model": {
    "type": "BPE",
    "dropout": null,
    "unk_token": "[UNK]",
    "continuing_subword_prefix": null,
    "end_of_word_suffix": null,
    "fuse_unk": false,
    "byte_fallback": false,
    "ignore_merges": false,
    "vocab": {
      "[PAD]": 0,
      "[UNK]": 1,
      "[CLS]": 2,
      "[SEP]": 3,
      "!": 4,
      "\"": 5,
      "#": 6,
      "$": 7,
      "%": 8,
      "&": 9,
      "'": 10,
      "(": 11,
      ")": 12,
      "*": 13,
      "+": 14,
      ",": 15,
      "-": 16,
      ".": 17,
      "/": 18,
      "0": 19,
      "1": 20,
      "2": 21,
      "3": 22,
      "4": 23,
      "5": 24,
      "6": 25,
      "7": 26,
      "8": 27,
      "9": 28,
      ":": 29,
      ";": 30,
      "<": 31,
      "=": 32,
      ">": 33,
      "?": 34,
      "@": 35,
      "A": 36,
      "B": 37,
      "C": 38,
      "D": 39,
      "E": 40,
      "F": 41,
      "G": 42,
      "H": 43,
      "I": 44,
      "J": 45,
      "K": 46,
      "L": 47,
      "M": 48,
      "N": 49,
      "O": 50,
      "P": 51,
      "Q": 52,
      "R": 53,
      "S": 54,
      "T": 55,
      "U": 56,
      "V": 57,
      "W": 58,
      "X": 59,
      "Y": 60,
      "Z": 61,
      "[": 62,
      "\\": 63,
      "]": 64,
      "^": 65,
      "_": 66,
      "a": 67,
      "b": 68,
      "c": 69,
      "d": 70,
      "e": 71,
      "f": 72,
      "g": 73,
      "h": 74,
      "i": 75,
      "j": 76,
      "k": 77,
      "l": 78,
      "m": 79,
      "n": 80,
      "o": 81,
      "p": 82,
      "q": 83,
      "r": 84,
      "s": 85,
      "t": 86,
      "u": 87,
      "v": 88,
      "w": 89,
      "x": 90,
      "y": 91,
      "z": 92,
      "{": 93,
      "|": 94,
      "}": 95,
      "~": 96,
      "¡": 97,
      "¢": 98,
      "¤": 99,
      "¥": 100,
      "¦": 101,
      "§": 102,
      "¨": 103,
      "©": 104,
      "¬": 105,
      "®": 106,
      "¯": 107,
      "°": 108,
      "±": 109,
      "²": 110,
      "³": 111,
      "¶": 112,
      "·": 113,
      "¸": 114,
      "¹": 115,
      "»": 116,
      "½": 117,
      "¿": 118,
      "Â": 119,
      "Ã": 120,
      "Í": 121,
      "â": 122,
      "æ": 123,
      "é": 124,
      "î": 125,
      "ï": 126,
      "ð": 127,
      "ĉ": 128,
      "Ċ": 129,
      "č": 130,
      "Ġ": 131,
      "Ģ": 132,
      "ģ": 133,
      "Ĥ": 134,
      "ĥ": 135,
      "Ħ": 136,
      "ħ": 137,
      "Ĩ": 138,
      "ĩ": 139,
      "Ī": 140,
      "ī": 141,
      "Ĭ": 142,
      "ĭ": 143,
      "Į": 144,
      "į": 145,
      "İ": 146,
      "ı": 147,
      "Ĳ": 148,
      "ĳ": 149,
      "Ĵ": 150,
      "ĵ": 151,
      "Ķ": 152,
      "ķ": 153,
      "ĸ": 154,
      "Ĺ": 155,
      "ĺ": 156,
      "Ļ": 157,
      "ļ": 158,
      "Ľ": 159,
      "ľ": 160,
      "Ŀ": 161,
      "ŀ": 162,
      "Ł": 163,
      "ł": 164,
      "Ń": 165,
      "âĢ": 166,
      "čĊ": 167,
      "in": 168,
      "er": 169,
      "co": 170,
      "at": 171,
      "an": 172,
      "ou": 173,
      "ed": 174,
      "re": 175,
      "čĊč": 176,
      "en": 177,
      "Ġt": 178,
      "or": 179,
      "es": 180,
      "on": 181,
      "com": 182,
      "our": 183,
      "__": 184,
      "ĠâĢ": 185,
      "il": 186,
      "ĠâĢĮ": 187,
      "ar": 188,
      "ĠĠ": 189,
      "»¿": 190,
      "ï»¿": 191,
      "it": 192,
      "al": 193,
      "is": 194,
      "ce": 195,
      "ht": 196,
      "ro": 197,
      "ec": 198,
      "sour": 199,
      "as": 200,
      "00": 201,
      "ing": 202,
      "ma": 203,
      "Ġth": 204,
      "ion": 205,
      "Ġs": 206,
      "tp": 207,
      "âĢĭ": 208,
      "âĢİ": 209,
      "įâĢİ": 210,
      "ıï»¿": 211,
      "âĢįâĢİ": 212,
      "âĢıï»¿": 213,
      "ĠâĢĮâĢĭ": 214,
      "âĢįâĢİâĢıï»¿": 215,
      "ĠâĢĮâĢĭâĢįâĢİâĢıï»¿": 216,
      "http": 217,
      "ut": 218,
      "ent": 219,
      "and": 220,
      ":/": 221,
      "://": 222,
      "Ġa": 223,
      "ww": 224,
      "ĠS": 225,
      "Ġf": 226,
      "https": 227,
      "gsour": 228,
      "el": 229,
      "20": 230,
      "Ġre": 231,
      "ata": 232,
      "ĠP": 233,
      "ic": 234,
      "ac": 235,
      "lo": 236,
      "____": 237,
      "ced": 238,
      "et": 239,
      "Ġw": 240,
      "am": 241,
      "čĊčĊ": 242,
      "Ġthe": 243,
      "Ġto": 244,
      "cedata": 245,
      "gsourcedata": 246,
      "ĠA": 247,
      "ĠM": 248,
      "mail": 249,
      "Ġy": 250,
      "con": 251,
      "==": 252,
      "Ġp": 253,
      "ĠT": 254,
      "Ġ<": 255,
      "Íı": 256,
      "id": 257,
      "Ġand": 258,
      "ig": 259,
      "ad": 260,
      "Ġd": 261,
      "ag": 262,
      "--": 263,
      "ĠI": 264,
      "ĠR": 265,
      "utm": 266,
      "Ġin": 267,
      "ĠC": 268,
      "le": 269,
      "ub": 270,
      "un": 271,
      "no": 272,
      "us": 273,
      "ob": 274,
      "ĠĠĠĠ": 275,
      "Ġb": 276,
      "of": 277,
      "ation": 278,
      "iv": 279,
      "26": 280,
      "Ġm": 281,
      "www": 282,
      "25": 283,
      "job": 284,
      "ĠD": 285,
      "ert": 286,
      "ik": 287,
      "ect": 288,
      "11": 289,
      "Ġc": 290,
      "ep": 291,
      "Ġe": 292,
      "ĠG": 293,
      "rom": 294,
      "end": 295,
      "ess": 296,
      "ly": 297,
      "ur": 298,
      "Ġfor": 299,
      "os": 300,
      "ĠÂ": 301,
      "Ġyou": 302,
      "Ġh": 303,
      "ng": 304,
      "ĠN": 305,
      "ct": 306,
      "qu": 307,
      "âĢĩ": 308,
      "ca": 309,
      "________": 310,
      "im": 311,
      "em": 312,
      "ol": 313,
      "ass": 314,
      "ign": 315,
      "ech": 316,
      "um": 317,
      "ĠÂŃ": 318,
      "01": 319,
      "ĠF": 320,
      "ity": 321,
      "Ġof": 322,
      "====": 323,
      "oo": 324,
      "ow": 325,
      "ist": 326,
      "log": 327,
      "ul": 328,
      "96": 329,
      "ort": 330,
      "Ġ-": 331,
      "av": 332,
      "st": 333,
      "Ġ(": 334,
      "ay": 335,
      "24": 336,
      "pp": 337,
      "to": 338,
      "Ġ1": 339,
      "eep": 340,
      "png": 341,
      "99": 342,
      "est": 343,
      "Ġis": 344,
      "ĠE": 345,
      "30": 346,
      "ate": 347,
      "source": 348,
      "----": 349,
      "andeep": 350,
      "Ġ|": 351,
      "ject": 352,
      "cont": 353,
      "anag": 354,
      "edi": 355,
      "Ġyour": 356,
      "du": 357,
      "oor": 358,
      "lert": 359,
      "ĠU": 360,
      "ĠW": 361,
      "medi": 362,
      "ith": 363,
      "ase": 364,
      "rodu": 365,
      "ï»¿Íı": 366,
      "ch": 367,
      "lass": 368,
      "art": 369,
      "op": 370,
      "Âł": 371,
      "ers": 372,
      "32": 373,
      "ab": 374,
      "ubject": 375,
      "04": 376,
      "ies": 377,
      "Ġl": 378,
      "ind": 379,
      "door": 380,
      "lassdoor": 381,
      "ĠB": 382,
      "ĠIn": 383,
      "ard": 384,
      "ir": 385,
      "icon": 386,
      "pa": 387,
      "gr": 388,
      "ĠL": 389,
      "Ġ20": 390,
      "Ġ>": 391,
      "if": 392,
      "Ġwith": 393,
      "17": 394,
      "email": 395,
      "From": 396,
      "Ġon": 397,
      "ĠRe": 398,
      "Alert": 399,
      "uto": 400,
      "elq": 401,
      "Subject": 402,
      "pos": 403,
      "roduct": 404,
      "Ġ4": 405,
      "une": 406,
      "th": 407,
      "te": 408,
      "55": 409,
      "ter": 410,
      "88": 411,
      "36": 412,
      "AA": 413,
      "mag": 414,
      "ner": 415,
      "ure": 416,
      "Ġno": 417,
      "ampa": 418,
      "ampaign": 419,
      "nolog": 420,
      "Ġï»¿Íı": 421,
      "cd": 422,
      "net": 423,
      "50": 424,
      "ark": 425,
      "age": 426,
      "any": 427,
      "ĠTech": 428,
      "Th": 429,
      "ri": 430,
      "lease": 431,
      "76": 432,
      "03": 433,
      "100": 434,
      "esh": 435,
      "are": 436,
      "Ġor": 437,
      "up": 438,
      "Ġâ": 439,
      "ew": 440,
      "ink": 441,
      "ment": 442,
      "ĠĠĠĠĠĠĠĠ": 443,
      "imag": 444,
      "Ġemail": 445,
      "campaign": 446,
      "58": 447,
      "70": 448,
      "roduction": 449,
      "ja": 450,
      "ss": 451,
      "tr": 452,
      "ĠH": 453,
      "eb": 454,
      "41": 455,
      "98": 456,
      "erv": 457,
      "Ġat": 458,
      "ll": 459,
      "čĊčĊčĊčĊ": 460,
      "production": 461,
      "Ġthis": 462,
      "content": 463,
      "ci": 464,
      "ĠTh": 465,
      "/>": 466,
      "artner": 467,
      "glassdoor": 468,
      "Ġfrom": 469,
      "10096": 470,
      "10": 471,
      "act": 472,
      "Ġn": 473,
      "images": 474,
      "ĠO": 475,
      "gsource": 476,
      "Ġbe": 477,
      "eam": 478,
      "sh": 479,
      "out": 480,
      "om": 481,
      "ach": 482,
      "Ĥ¹": 483,
      "21": 484,
      "all": 485,
      "Ġ3": 486,
      "ive": 487,
      "aik": 488,
      "========": 489,
      "ine": 490,
      "ia": 491,
      "oft": 492,
      "medium": 493,
      "send": 494,
      "ilesh": 495,
      "Ġare": 496,
      "263": 497,
      "cdn": 498,
      "ov": 499,
      "ail": 500,
      "________________": 501,
      "09": 502,
      "wad": 503,
      "mailto": 504,
      "edf": 505,
      "grid": 506,
      "sendgrid": 507,
      "43": 508,
      "mca": 509,
      "mcauto": 510,
      "Ġ&": 511,
      "nologies": 512,
      "ant": 513,
      "ack": 514,
      "ap": 515,
      "for": 516,
      "ĠManag": 517,
      "čĊčĊčĊč": 518,
      "ill": 519,
      "56": 520,
      "ecur": 521,
      "Ġ*": 522,
      "aikwad": 523,
      "ot": 524,
      "ook": 525,
      "38": 526,
      "dd": 527,
      "ecurity": 528,
      "ai": 529,
      "]<": 530,
      "ore": 531,
      "ance": 532,
      "Ġnot": 533,
      "ave": 534,
      "isting": 535,
      "od": 536,
      ">;": 537,
      "Ġcon": 538,
      "uid": 539,
      "har": 540,
      "ef": 541,
      "form": 542,
      "JO": 543,
      "čĊčĊč": 544,
      "16": 545,
      "44": 546,
      "ĠV": 547,
      "Id": 548,
      "comm": 549,
      "ak": 550,
      "ĠIT": 551,
      "--------": 552,
      "48": 553,
      "ated": 554,
      "ks": 555,
      "ions": 556,
      "sp": 557,
      "Ġpro": 558,
      "Ġg": 559,
      "ĠPune": 560,
      "ff": 561,
      "40": 562,
      "comp": 563,
      "23": 564,
      "sc": 565,
      "ell": 566,
      "GD": 567,
      "ice": 568,
      "essage": 569,
      "be": 570,
      "jobL": 571,
      "cc": 572,
      "Ġany": 573,
      "jobListing": 574,
      "fer": 575,
      "51": 576,
      "Ġ[": 577,
      "yb": 578,
      "alert": 579,
      "JOB": 580,
      "69": 581,
      "link": 582,
      "book": 583,
      "gard": 584,
      "soft": 585,
      "ru": 586,
      "sandeep": 587,
      "ĠK": 588,
      "cl": 589,
      "iew": 590,
      "ace": 591,
      "27": 592,
      "quest": 593,
      "Ġex": 594,
      "28": 595,
      "ication": 596,
      "46": 597,
      "Ġ2026": 598,
      "Ġus": 599,
      "78": 600,
      "Ġr": 601,
      "jobAlert": 602,
      "jobalert": 603,
      "jobAlertAlert": 604,
      "Ġrece": 605,
      "cb": 606,
      "jobpos": 607,
      "ement": 608,
      "âĢĻ": 609,
      "Ġas": 610,
      "icro": 611,
      "se": 612,
      "pport": 613,
      "nd": 614,
      "MD": 615,
      "Ġv": 616,
      "icrosoft": 617,
      "pr": 618,
      "ral": 619,
      "ence": 620,
      "Ġ\"": 621,
      "Ġit": 622,
      "Ġour": 623,
      "Ġrep": 624,
      "06": 625,
      "AD": 626,
      "18": 627,
      "29": 628,
      "ĠGsource": 629,
      "fr": 630,
      "ee": 631,
      "0000": 632,
      "oud": 633,
      "ĠPark": 634,
      "ime": 635,
      "77": 636,
      "gards": 637,
      "39": 638,
      "ire": 639,
      "vt": 640,
      "ĠSandeep": 641,
      "scri": 642,
      "ĠManager": 643,
      "ubscri": 644,
      "iz": 645,
      "Ġplease": 646,
      "Ġwill": 647,
      "čĊĠ": 648,
      "acebook": 649,
      "cs": 650,
      "ĠâĤ¹": 651,
      "45": 652,
      "umb": 653,
      "iness": 654,
      "Ġcont": 655,
      "13": 656,
      "ial": 657,
      "af": 658,
      "Ġhave": 659,
      "ĠTechnologies": 660,
      "tg": 661,
      "Ġmessage": 662,
      "usiness": 663,
      "upport": 664,
      "91": 665,
      "eliv": 666,
      "entral": 667,
      "Ġdo": 668,
      "ck": 669,
      "riv": 670,
      "ood": 671,
      "Pune": 672,
      "tech": 673,
      "htm": 674,
      "ash": 675,
      "Ġ+": 676,
      "ere": 677,
      "ices": 678,
      "eliver": 679,
      "DC": 680,
      "ain": 681,
      "va": 682,
      "Ġatt": 683,
      "60": 684,
      "ĠUS": 685,
      "eni": 686,
      "001": 687,
      "Ġby": 688,
      "edin": 689,
      "Ġthat": 690,
      "ho": 691,
      "Ġup": 692,
      "able": 693,
      "95": 694,
      "ud": 695,
      "1101": 696,
      "To": 697,
      "subscri": 698,
      "92": 699,
      "ĠJ": 700,
      "ubai": 701,
      "facebook": 702,
      "linkedin": 703,
      "ah": 704,
      "ev": 705,
      "Ġwe": 706,
      "esign": 707,
      "ĠÍı": 708,
      "yber": 709,
      "47": 710,
      "DD": 711,
      "subscribe": 712,
      "ĠThis": 713,
      "Ġco": 714,
      "unt": 715,
      "loud": 716,
      "Ġst": 717,
      "enior": 718,
      "now": 719,
      "wood": 720,
      "Ġk": 721,
      "âĢĮ": 722,
      "ork": 723,
      "ĠY": 724,
      "ight": 725,
      "Than": 726,
      "67": 727,
      "IE": 728,
      "olly": 729,
      "AE": 730,
      "avan": 731,
      "Ġen": 732,
      "Ġtr": 733,
      "ident": 734,
      "yst": 735,
      "one": 736,
      "Ġsh": 737,
      "ollywood": 738,
      "37": 739,
      "Ġteam": 740,
      "3021": 741,
      "ick": 742,
      "ear": 743,
      "ms": 744,
      "19": 745,
      "**": 746,
      "05": 747,
      "22": 748,
      "49": 749,
      "ue": 750,
      "jr": 751,
      "ge": 752,
      "FE": 753,
      "ely": 754,
      "gaikwad": 755,
      "eri": 756,
      "ervices": 757,
      "/?": 758,
      "Hi": 759,
      "ics": 760,
      "Ġma": 761,
      "count": 762,
      "15": 763,
      "Ġan": 764,
      "Ġop": 765,
      "ical": 766,
      "================": 767,
      "nt": 768,
      "Ġhttps": 769,
      "bf": 770,
      "han": 771,
      "ĠTeam": 772,
      "LU": 773,
      "ruva": 774,
      "08": 775,
      "ree": 776,
      "loor": 777,
      "Ġwh": 778,
      "gsourcetech": 779,
      "rc": 780,
      "ĠIf": 781,
      "olut": 782,
      "Ġim": 783,
      "Ġmore": 784,
      "squ": 785,
      "Ġ2025": 786,
      "35": 787,
      "square": 788,
      "ient": 789,
      "Ġun": 790,
      "ĠGaikwad": 791,
      "čĊčĊĠ": 792,
      "ender": 793,
      "ish": 794,
      "248": 795,
      "AG": 796,
      "BA": 797,
      "ql": 798,
      "Ġme": 799,
      "ube": 800,
      "511": 801,
      "ĠInd": 802,
      "224": 803,
      "tk": 804,
      "Ġadd": 805,
      "Ġconf": 806,
      "800": 807,
      "ond": 808,
      "eting": 809,
      "ĠRing": 810,
      "ments": 811,
      "oho": 812,
      "ao": 813,
      "eed": 814,
      "ld": 815,
      "Central": 816,
      "IM": 817,
      "OR": 818,
      "ĠPro": 819,
      "JA": 820,
      "ps": 821,
      "203": 822,
      "ystem": 823,
      "14": 824,
      "ok": 825,
      "In": 826,
      "partner": 827,
      "Ġâĺ": 828,
      "go": 829,
      "Ġcan": 830,
      "Ġâĺħ": 831,
      "âĤ¹": 832,
      "ations": 833,
      "ccount": 834,
      "|%": 835,
      "ited": 836,
      "Ġ:": 837,
      "85": 838,
      "ND": 839,
      "aner": 840,
      "Re": 841,
      "aa": 842,
      "guid": 843,
      "bd": 844,
      "view": 845,
      "983": 846,
      "low": 847,
      "Ġexp": 848,
      "Ġreceiv": 849,
      "ĠRingCentral": 850,
      "Ġcomp": 851,
      "ha": 852,
      "043": 853,
      "ered": 854,
      "ix": 855,
      "src": 856,
      "ccess": 857,
      "Ġapp": 858,
      "ĠFloor": 859,
      "nilesh": 860,
      "oin": 861,
      "ati": 862,
      "ress": 863,
      "ĠSh": 864,
      "Ġdesign": 865,
      "ĠRegards": 866,
      "ĠDubai": 867,
      "commun": 868,
      "ey": 869,
      "ga": 870,
      "1136": 871,
      "logo": 872,
      "Mz": 873,
      "df": 874,
      "oci": 875,
      "Senior": 876,
      "1136043": 877,
      "ran": 878,
      "000001": 879,
      "Ġif": 880,
      "Ġint": 881,
      "ĠRep": 882,
      "jp": 883,
      "anage": 884,
      "uido": 885,
      "DCD": 886,
      "7983": 887,
      "9917": 888,
      "5809": 889,
      "Ġsender": 890,
      "ĠIndia": 891,
      "abil": 892,
      "Ġresp": 893,
      "IEW": 894,
      "VIEW": 895,
      "Ġsecurity": 896,
      "ĠSt": 897,
      "AAAG": 898,
      "ĠĠĠĠĠĠĠĠĠĠĠĠĠĠĠĠ": 899,
      "jobListingId": 900,
      "yul": 901,
      "jrtk": 902,
      ",%": 903,
      "gist": 904,
      "ware": 905,
      "Ġinform": 906,
      "7641": 907,
      "ĠEst": 908,
      "tgt": 909,
      "307641": 910,
      "307641248": 911,
      "LC": 912,
      "de": 913,
      "ĠCon": 914,
      "utom": 915,
      "imited": 916,
      "94": 917,
      "ae": 918,
      "ami": 919,
      "outube": 920,
      "ba": 921,
      "Ġcontact": 922,
      "ite": 923,
      "ost": 924,
      "company": 925,
      "Tr": 926,
      "ĠCom": 927,
      "owl": 928,
      "youtube": 929,
      "Ġrequ": 930,
      "ame": 931,
      "ĠFor": 932,
      "pt": 933,
      "Ġattach": 934,
      "Cc": 935,
      "yati": 936,
      "media": 937,
      "54": 938,
      "sql": 939,
      "ib": 940,
      "ĠNyati": 941,
      "ays": 942,
      "755": 943,
      "iami": 944,
      "----------------": 945,
      "ĠReport": 946,
      "81": 947,
      "Ġent": 948,
      "irm": 949,
      "Sent": 950,
      "Ġ41101": 951,
      "Ġits": 952,
      "gaon": 953,
      "cor": 954,
      "adgaon": 955,
      "sheri": 956,
      "Thanks": 957,
      "Ġ411014": 958,
      "adgaonsheri": 959,
      "gine": 960,
      "mp": 961,
      "888": 962,
      "acy": 963,
      "app": 964,
      "ST": 965,
      "Ġwww": 966,
      "ates": 967,
      "enc": 968,
      "Ġdis": 969,
      "nology": 970,
      "NT": 971,
      "ĠâĢĵ": 972,
      "arn": 973,
      "Ġle": 974,
      "AF": 975,
      "att": 976,
      "Ġtime": 977,
      "enov": 978,
      "ets": 979,
      "ĠEx": 980,
      "74": 981,
      "ror": 982,
      "ahad": 983,
      "enovo": 984,
      "34": 985,
      "12": 986,
      "ĠMicrosoft": 987,
      "This": 988,
      "Ġrequest": 989,
      "ĠUAE": 990,
      "________________________________": 991,
      "ĠUSA": 992,
      "day": 993,
      "Ġ2": 994,
      "ĠAI": 995,
      "Ġ300": 996,
      "Ġreceived": 997,
      "ĠRd": 998,
      "ver": 999,
      ").": 1000,
      "look": 1001,
      "ĠNow": 1002,
      "ĠNilesh": 1003,
      "Ġreport": 1004,
      "Ġer": 1005,
      "2026": 1006,
      "gsourcetechnologies": 1007,
      "bc": 1008,
      "dv": 1009,
      "druva": 1010,
      "li": 1011,
      "ature": 1012,
      "row": 1013,
      ".)": 1014,
      "07": 1015,
      "MI": 1016,
      "he": 1017,
      "02": 1018,
      "Ġerror": 1019,
      "/@": 1020,
      "ual": 1021,
      "cip": 1022,
      "68": 1023,
      "arch": 1024,
      "llc": 1025,
      "322": 1026,
      "olutions": 1027,
      "7555": 1028,
      "gsourcetechnologiesllc": 1029,
      "Ġmailto": 1030,
      "ervice": 1031,
      "Ġsupport": 1032,
      "ĠSecurity": 1033,
      "db": 1034,
      "xh": 1035,
      "own": 1036,
      "idential": 1037,
      "Glassdoor": 1038,
      "hi": 1039,
      "ast": 1040,
      "ĠFL": 1041,
      "elivery": 1042,
      "gle": 1043,
      "Ġres": 1044,
      "RC": 1045,
      "ĠPlease": 1046,
      "ĠMahad": 1047,
      "frat": 1048,
      "93": 1049,
      "rep": 1050,
      "gartner": 1051,
      "ĠPM": 1052,
      "ĠHollywood": 1053,
      "yberfrat": 1054,
      "ound": 1055,
      "ould": 1056,
      "itter": 1057,
      "als": 1058,
      "Ġch": 1059,
      "Ġass": 1060,
      "9925": 1061,
      "ĠMahadik": 1062,
      "Ġ450": 1063,
      "ther": 1064,
      "Ġ33021": 1065,
      "kash": 1066,
      "ĠApr": 1067,
      "Ġpriv": 1068,
      "71": 1069,
      "mer": 1070,
      "zoho": 1071,
      "umbai": 1072,
      "MT": 1073,
      "ĠLLC": 1074,
      "Ġoper": 1075,
      "oogle": 1076,
      "čĊčĊčĊčĊčĊčĊčĊčĊ": 1077,
      "der": 1078,
      "irect": 1079,
      "..": 1080,
      "eg": 1081,
      "Ġ322": 1082,
      "Ġsent": 1083,
      "usto": 1084,
      "GB": 1085,
      "ĠĠĠ": 1086,
      "team": 1087,
      "Ġreceive": 1088,
      "Ġqu": 1089,
      "ollow": 1090,
      "tics": 1091,
      "ary": 1092,
      "ĠInc": 1093,
      "ex": 1094,
      "br": 1095,
      "etail": 1096,
      "ĠAn": 1097,
      "33": 1098,
      "ering": 1099,
      "BAI": 1100,
      "dm": 1101,
      "iw": 1102,
      "manage": 1103,
      "cipient": 1104,
      "bb": 1105,
      "ĠThe": 1106,
      "=>": 1107,
      "nsubscribe": 1108,
      "load": 1109,
      "763": 1110,
      "Ġmanag": 1111,
      "87": 1112,
      "KF": 1113,
      "MDQ": 1114,
      "CI": 1115,
      "ĠTr": 1116,
      "ushar": 1117,
      "ights": 1118,
      "communication": 1119,
      "ram": 1120,
      "Ġcall": 1121,
      "Ġnumb": 1122,
      "Ġaddress": 1123,
      "ĠApril": 1124,
      "ĠOn": 1125,
      "'s": 1126,
      "Cx": 1127,
      "59": 1128,
      "Ġdata": 1129,
      "Ġ03": 1130,
      "MDQAAAG": 1131,
      "XV": 1132,
      "aster": 1133,
      "Ġsp": 1134,
      "indly": 1135,
      "We": 1136,
      "dy": 1137,
      "Ġ7": 1138,
      "alach": 1139,
      "attil": 1140,
      "alachattil": 1141,
      "53": 1142,
      "Ġset": 1143,
      "Ġwork": 1144,
      "Ġpl": 1145,
      "aid": 1146,
      "Ġstr": 1147,
      "ĠInt": 1148,
      "Ġmay": 1149,
      "squarelogo": 1150,
      "ition": 1151,
      "igest": 1152,
      "ended": 1153,
      "ngine": 1154,
      "If": 1155,
      "inf": 1156,
      "ĠDell": 1157,
      "Ġcl": 1158,
      "rov": 1159,
      "ult": 1160,
      "ZW": 1161,
      "pavan": 1162,
      "Ġ5": 1163,
      "Please": 1164,
      "ĠKalachattil": 1165,
      "ences": 1166,
      "TE": 1167,
      "VN": 1168,
      "ust": 1169,
      "itor": 1170,
      "ide": 1171,
      "ikam": 1172,
      "ip": 1173,
      "Ġmail": 1174,
      "Ġout": 1175,
      "over": 1176,
      "lenovo": 1177,
      "Ġč": 1178,
      "ise": 1179,
      "ization": 1180,
      "maps": 1181,
      "Track": 1182,
      "84": 1183,
      "ately": 1184,
      "Ġwas": 1185,
      "ĠCloud": 1186,
      "stag": 1187,
      "FOR": 1188,
      "Ox": 1189,
      "000": 1190,
      "Ġhow": 1191,
      "cess": 1192,
      "IN": 1193,
      "Ġ6": 1194,
      "ĠAll": 1195,
      "elqTrack": 1196,
      "Im": 1197,
      "elp": 1198,
      "ĠAlert": 1199,
      "Ġshare": 1200,
      "Ġadv": 1201,
      "stagram": 1202,
      "elqTrackId": 1203,
      "witter": 1204,
      "ÂłÂł": 1205,
      "Ġimmedi": 1206,
      "79": 1207,
      "KR": 1208,
      "2025": 1209,
      "ikas": 1210,
      "Ġregist": 1211,
      "elqak": 1212,
      "ferences": 1213,
      "MzA": 1214,
      "google": 1215,
      "ities": 1216,
      "The": 1217,
      "Ġknow": 1218,
      "LUFOR": 1219,
      "Ġattached": 1220,
      "LUFORy": 1221,
      "ea": 1222,
      "red": 1223,
      "Ġ/": 1224,
      "ong": 1225,
      "elqat": 1226,
      "elqaid": 1227,
      "da": 1228,
      "ocial": 1229,
      "86": 1230,
      "get": 1231,
      "ection": 1232,
      "ĠManagement": 1233,
      "ĠYou": 1234,
      "Wh": 1235,
      "sec": 1236,
      "ateg": 1237,
      "trk": 1238,
      "odaf": 1239,
      "etails": 1240,
      "odafone": 1241,
      "FL": 1242,
      "NE": 1243,
      "ans": 1244,
      "ulik": 1245,
      "Ġ10": 1246,
      "73": 1247,
      "SD": 1248,
      "ĠMarch": 1249,
      "Ġhere": 1250,
      "ification": 1251,
      "gan": 1252,
      "Ġneed": 1253,
      "Ġbeen": 1254,
      "Ġintended": 1255,
      "IA": 1256,
      "MA": 1257,
      "lor": 1258,
      "social": 1259,
      "Ġo": 1260,
      "Ġcontent": 1261,
      "Ġall": 1262,
      "Ġpre": 1263,
      "Ġlink": 1264,
      "Ġconfidential": 1265,
      "ĠPriv": 1266,
      "oftware": 1267,
      "ustomer": 1268,
      "72": 1269,
      "Rd": 1270,
      "cus": 1271,
      "rh": 1272,
      "Ġ11": 1273,
      "ello": 1274,
      "Ġhas": 1275,
      "Bowl": 1276,
      "Ġservices": 1277,
      "Ġaccess": 1278,
      "Ġautom": 1279,
      "ĠAkash": 1280,
      "ĠMulik": 1281,
      "Ġbel": 1282,
      "assets": 1283,
      "tok": 1284,
      "Ġnumbers": 1285,
      "CC": 1286,
      "cyberfrat": 1287,
      "ecomm": 1288,
      "resh": 1289,
      "Ġsandeep": 1290,
      "loy": 1291,
      "Ġper": 1292,
      "83": 1293,
      "Ġfollow": 1294,
      "ĠVadgaonsheri": 1295,
      "bo": 1296,
      "ous": 1297,
      "ital": 1298,
      "ike": 1299,
      "mk": 1300,
      "ward": 1301,
      "Ġimmediately": 1302,
      "42": 1303,
      "WV": 1304,
      "ead": 1305,
      "lob": 1306,
      "Pod": 1307,
      "ecPod": 1308,
      "ĠSy": 1309,
      "Ġrecipient": 1310,
      "microsoft": 1311,
      "pl": 1312,
      "vo": 1313,
      "Ġj": 1314,
      "esk": 1315,
      "Ġonly": 1316,
      "ference": 1317,
      "Ref": 1318,
      "na": 1319,
      "Ġ.": 1320,
      "ile": 1321,
      "Ġag": 1322,
      "ĠSte": 1323,
      "cation": 1324,
      "ari": 1325,
      "ĠPl": 1326,
      "ek": 1327,
      "Ġact": 1328,
      "Ġfind": 1329,
      "Ste": 1330,
      "US": 1331,
      "zCx": 1332,
      "ese": 1333,
      "aly": 1334,
      "isk": 1335,
      "Ġassist": 1336,
      "Ġbelow": 1337,
      "89": 1338,
      "As": 1339,
      "hos": 1340,
      "india": 1341,
      "lobal": 1342,
      "TA": 1343,
      "vent": 1344,
      "xXV": 1345,
      "Ġ9": 1346,
      "ilzCx": 1347,
      "avind": 1348,
      "Ġ16": 1349,
      "AAaa": 1350,
      "OxAAaa": 1351,
      "Ġregistered": 1352,
      "xXVilzCx": 1353,
      "OxAAaaKR": 1354,
      "Digest": 1355,
      "Lo": 1356,
      "cid": 1357,
      "Ġal": 1358,
      "Ġlimited": 1359,
      "atha": 1360,
      "engine": 1361,
      "ranatha": 1362,
      "socialBowl": 1363,
      "avindranatha": 1364,
      "socialBowlDigest": 1365,
      "64": 1366,
      "instagram": 1367,
      "onitor": 1368,
      "Ġfirm": 1369,
      "me": 1370,
      "tt": 1371,
      "ĠWe": 1372,
      "ÂłčĊč": 1373,
      "Ġimp": 1374,
      "fe": 1375,
      "free": 1376,
      "Ġaccount": 1377,
      "ifi": 1378,
      "450": 1379,
      "EV": 1380,
      "ownload": 1381,
      "GV": 1382,
      "Hello": 1383,
      "Ġshar": 1384,
      "ĠWh": 1385,
      "Ġentity": 1386,
      "EC": 1387,
      "kz": 1388,
      "Ġsystem": 1389,
      "ida": 1390,
      "ession": 1391,
      "Ġdesignated": 1392,
      "ĠMiami": 1393,
      "Ġcontents": 1394,
      "57": 1395,
      "Com": 1396,
      "ĠX": 1397,
      "ĠZ": 1398,
      "igital": 1399,
      "ull": 1400,
      "manageengine": 1401,
      "Dear": 1402,
      "ra": 1403,
      "ric": 1404,
      "ĠĠč": 1405,
      "ired": 1406,
      "ĠNo": 1407,
      "Hollywood": 1408,
      "NS": 1409,
      "Park": 1410,
      "Ġsolutions": 1411,
      "ĠFlor": 1412,
      "Ġoperates": 1413,
      "ĠFlorida": 1414,
      "LO": 1415,
      "vail": 1416,
      "Ġreprodu": 1417,
      "Ġprivate": 1418,
      "Qu": 1419,
      "wa": 1420,
      "ens": 1421,
      "cuss": 1422,
      "82": 1423,
      "brand": 1424,
      "31": 1425,
      "Refresh": 1426,
      "brandRefresh": 1427,
      "\"<": 1428,
      "uth": 1429,
      "Ġtoll": 1430,
      "Ġinter": 1431,
      "ophos": 1432,
      "tat": 1433,
      "ĠBusiness": 1434,
      "ĠRequest": 1435,
      "110148": 1436,
      "Ġ03110148": 1437,
      "892": 1438,
      "Ex": 1439,
      "gl": 1440,
      "hh": 1441,
      "web": 1442,
      "igg": 1443,
      "Ġoff": 1444,
      "Ġlet": 1445,
      "20300": 1446,
      "2033021": 1447,
      "UM": 1448,
      "ĠPavan": 1449,
      "amind": 1450,
      "Ġdetails": 1451,
      "olic": 1452,
      "ĠEngine": 1453,
      "Ġprov": 1454,
      "EE": 1455,
      "twitter": 1456,
      "mploy": 1457,
      "52": 1458,
      "Ġavail": 1459,
      "ify": 1460,
      "================================": 1461,
      "uct": 1462,
      "ve": 1463,
      "Ġcloud": 1464,
      "ched": 1465,
      "clud": 1466,
      "TC": 1467,
      "aff": 1468,
      "Ġrem": 1469,
      "Ġinformation": 1470,
      "ales": 1471,
      "upt": 1472,
      "Ġrequire": 1473,
      "Sandeep": 1474,
      "nect": 1475,
      "time": 1476,
      "ĠSu": 1477,
      "Ġhelp": 1478,
      "****": 1479,
      "Ġsetup": 1480,
      "su": 1481,
      "onse": 1482,
      "Ġfe": 1483,
      "igh": 1484,
      "Ġdiscuss": 1485,
      "ified": 1486,
      ">,": 1487,
      "saner": 1488,
      "reat": 1489,
      "Ġac": 1490,
      "ĠSystem": 1491,
      "ĠApp": 1492,
      "66": 1493,
      "SO": 1494,
      "fw": 1495,
      "Ġ12": 1496,
      "Ġlike": 1497,
      "og": 1498,
      "pe": 1499,
      "BB": 1500,
      "cf": 1501,
      "Ġthese": 1502,
      "ignature": 1503,
      "ability": 1504,
      "Ġassistance": 1505,
      "MS": 1506,
      "Ġ#": 1507,
      "Ġgsource": 1508,
      "eck": 1509,
      "main": 1510,
      "ents": 1511,
      "Ġab": 1512,
      "ĠServices": 1513,
      "unsubscribe": 1514,
      "logix": 1515,
      "ome": 1516,
      "Ġmanagement": 1517,
      "Ass": 1518,
      "Unsubscribe": 1519,
      "line": 1520,
      "nc": 1521,
      "uil": 1522,
      "campaigns": 1523,
      "spcampaigns": 1524,
      "sanernow": 1525,
      "ĠIntel": 1526,
      "Ġfollowing": 1527,
      "iO": 1528,
      "Ġlook": 1529,
      "enter": 1530,
      "ĠService": 1531,
      "Ġbusiness": 1532,
      "loqu": 1533,
      "Ġforward": 1534,
      "Ġrequired": 1535,
      "cum": 1536,
      "inar": 1537,
      "formation": 1538,
      "corp": 1539,
      "rhcommunication": 1540,
      "Eloqu": 1541,
      "ding": 1542,
      "pro": 1543,
      "Ġsol": 1544,
      "ĠRed": 1545,
      "iket": 1546,
      "ĠEmail": 1547,
      "Eloqua": 1548,
      "atel": 1549,
      "ank": 1550,
      "Ġone": 1551,
      "tatatel": 1552,
      "BC": 1553,
      "cn": 1554,
      "signature": 1555,
      "ĠMail": 1556,
      "ĠDis": 1557,
      "Thank": 1558,
      "gh": 1559,
      "sIm": 1560,
      "254": 1561,
      "Ġ15": 1562,
      "icons": 1563,
      "tek": 1564,
      "Ġtrad": 1565,
      "Regards": 1566,
      "Nilesh": 1567,
      "RS": 1568,
      "mar": 1569,
      "ract": 1570,
      "urre": 1571,
      "reply": 1572,
      "Ġmy": 1573,
      "Ġupd": 1574,
      "zohocorp": 1575,
      "Ind": 1576,
      "ased": 1577,
      "urch": 1578,
      "Ġnew": 1579,
      "LW": 1580,
      "work": 1581,
      "ich": 1582,
      "ĠAccount": 1583,
      "Ġsolely": 1584,
      "Nj": 1585,
      "TV": 1586,
      "mun": 1587,
      "Ġdelivery": 1588,
      "ĠGr": 1589,
      "img": 1590,
      "Ġorgan": 1591,
      "irector": 1592,
      "80": 1593,
      "gg": 1594,
      "pod": 1595,
      "wan": 1596,
      "ener": 1597,
      "secpod": 1598,
      "tection": 1599,
      "uld": 1600,
      "Ġcould": 1601,
      "mkt": 1602,
      "499": 1603,
      "IT": 1604,
      "back": 1605,
      "MARC": 1606,
      "ĠPrivacy": 1607,
      "90": 1608,
      "cing": 1609,
      "Ġ67": 1610,
      "orp": 1611,
      "ĠSaner": 1612,
      "ĠYour": 1613,
      "olicy": 1614,
      "zc": 1615,
      "ĉĉ": 1616,
      "ici": 1617,
      "ower": 1618,
      "ope": 1619,
      "tekhar": 1620,
      "Ij": 1621,
      "Ġpri": 1622,
      "erved": 1623,
      "click": 1624,
      ".,": 1625,
      "ds": 1626,
      "desk": 1627,
      "ees": 1628,
      "ĠPre": 1629,
      "ĠAM": 1630,
      "Ġdays": 1631,
      "emark": 1632,
      "Ġdocum": 1633,
      "oint": 1634,
      "very": 1635,
      "India": 1636,
      "ĠSecPod": 1637,
      "čĊčĊčĊčĊč": 1638,
      "Ġdownload": 1639,
      "Ġdigital": 1640,
      "Ġinclud": 1641,
      "Ġavailable": 1642,
      "Mumbai": 1643,
      "bl": 1644,
      "dG": 1645,
      "atch": 1646,
      "anced": 1647,
      "CE": 1648,
      "IV": 1649,
      "PT": 1650,
      "YA": 1651,
      "YW": 1652,
      "qs": 1653,
      "ting": 1654,
      "wap": 1655,
      "ory": 1656,
      "ĠGartner": 1657,
      "ĠBIM": 1658,
      "Ġremov": 1659,
      "62": 1660,
      "Dubai": 1661,
      "Miami": 1662,
      "UNE": 1663,
      "dc": 1664,
      "led": 1665,
      "nil": 1666,
      "ning": 1667,
      "pb": 1668,
      "Ġwould": 1669,
      "prise": 1670,
      "aining": 1671,
      "evel": 1672,
      "msng": 1673,
      "Ġtrademark": 1674,
      "wapnil": 1675,
      "Microsoft": 1676,
      "jjp": 1677,
      "pert": 1678,
      "ough": 1679,
      "1106": 1680,
      "ĠOr": 1681,
      "Ġsharing": 1682,
      "ucture": 1683,
      "65": 1684,
      "EB": 1685,
      "OD": 1686,
      "ĠÂ®": 1687,
      "00000194": 1688,
      "Ġstrateg": 1689,
      "itional": 1690,
      "75": 1691,
      "UBAI": 1692,
      "grow": 1693,
      "rat": 1694,
      "ring": 1695,
      "vW": 1696,
      "Ġ0": 1697,
      "ĠPUNE": 1698,
      "Ġpoor": 1699,
      "ĠDUBAI": 1700,
      "Ġcre": 1701,
      "ortal": 1702,
      "urchase": 1703,
      "Ġtrademarks": 1704,
      "dh": 1705,
      "td": 1706,
      "Ġsu": 1707,
      "lytics": 1708,
      "ckjjp": 1709,
      "hhfw": 1710,
      "growlytics": 1711,
      "ckjjpm": 1712,
      "hhfwkz": 1713,
      "PM": 1714,
      "Sh": 1715,
      "gn": 1716,
      "Ġ8": 1717,
      "ĠMumbai": 1718,
      "Ġresponse": 1719,
      "Ġ6744": 1720,
      "orpor": 1721,
      "Best": 1722,
      "fb": 1723,
      "read": 1724,
      "Ġfail": 1725,
      "Ġreach": 1726,
      "Ġweb": 1727,
      "urther": 1728,
      "olution": 1729,
      "Con": 1730,
      "ivity": 1731,
      "ĠSynology": 1732,
      "104": 1733,
      "ID": 1734,
      "OW": 1735,
      "hs": 1736,
      "nical": 1737,
      "pvt": 1738,
      "ĊĊ": 1739,
      "its": 1740,
      "ceed": 1741,
      "ulner": 1742,
      "Ġadvanced": 1743,
      "AS": 1744,
      "lv": 1745,
      "support": 1746,
      "Ħ¢": 1747,
      "ena": 1748,
      "ecure": 1749,
      "astr": 1750,
      "ikant": 1751,
      "otech": 1752,
      "iwari": 1753,
      "ĠTrigg": 1754,
      "OT": 1755,
      "jN": 1756,
      "Ġsoftware": 1757,
      "ĠSupport": 1758,
      "Ġuser": 1759,
      "alytics": 1760,
      "FC": 1761,
      "Up": 1762,
      "per": 1763,
      "erms": 1764,
      "iss": 1765,
      "ĠCall": 1766,
      "ĠDelivery": 1767,
      "ĠGlassdoor": 1768,
      "ĠÂł": 1769,
      "304": 1770,
      "Ġlist": 1771,
      "Ġengine": 1772,
      "Ġdocuments": 1773,
      "SS": 1774,
      "fc": 1775,
      "ym": 1776,
      "ĠčĊč": 1777,
      "ount": 1778,
      "ĠDirector": 1779,
      "overn": 1780,
      "astructure": 1781,
      "gsourcetechpvt": 1782,
      "--------------------------------": 1783,
      "MDQAAAGY": 1784,
      "ium": 1785,
      "tushar": 1786,
      "Ġlo": 1787,
      "Ġwant": 1788,
      "oshi": 1789,
      "Ġ14": 1790,
      "Ġprocess": 1791,
      "00000": 1792,
      "ociate": 1793,
      "UMBAI": 1794,
      "upta": 1795,
      "'re": 1796,
      "9254": 1797,
      "Rl": 1798,
      "Ġfurther": 1799,
      "aveena": 1800,
      "Ġcheck": 1801,
      "DA": 1802,
      "JZ": 1803,
      "OM": 1804,
      "POR": 1805,
      "zZ": 1806,
      "itect": 1807,
      "Ġback": 1808,
      "366": 1809,
      "389": 1810,
      "Ġapprov": 1811,
      "fo": 1812,
      "put": 1813,
      "iron": 1814,
      "urrent": 1815,
      "150": 1816,
      "cr": 1817,
      "hone": 1818,
      "zure": 1819,
      "Ġ27": 1820,
      "cloud": 1821,
      "liance": 1822,
      "infotech": 1823,
      "110658": 1824,
      "overnance": 1825,
      "pec": 1826,
      "site": 1827,
      "Ġend": 1828,
      "Ġpay": 1829,
      "ĠCl": 1830,
      "ĠTechnology": 1831,
      "elivering": 1832,
      "ondhe": 1833,
      "63": 1834,
      "fa": 1835,
      "Ġso": 1836,
      "Ġam": 1837,
      "Ġrefr": 1838,
      "Ġinto": 1839,
      "105": 1840,
      "Ġgo": 1841,
      "frastructure": 1842,
      "etings": 1843,
      "ible": 1844,
      "TANT": 1845,
      "PORTANT": 1846,
      "Ġrefrain": 1847,
      "701": 1848,
      "Imag": 1849,
      "On": 1850,
      "bowl": 1851,
      "central": 1852,
      "uv": 1853,
      "itteam": 1854,
      "ĠAp": 1855,
      "ĠCAD": 1856,
      "ĠUn": 1857,
      "Ġnow": 1858,
      "try": 1859,
      "Ġconnect": 1860,
      "Ġrights": 1861,
      "jpg": 1862,
      "Ġreserved": 1863,
      "...": 1864,
      "asterc": 1865,
      "Ġengineering": 1866,
      "801": 1867,
      "Cs": 1868,
      "For": 1869,
      "RU": 1870,
      "SM": 1871,
      "Ġ'": 1872,
      "eramind": 1873,
      "365": 1874,
      "IMPORTANT": 1875,
      "00000195": 1876,
      "Ġreproducing": 1877,
      "rough": 1878,
      "ule": 1879,
      "Ġ=": 1880,
      "ersecurity": 1881,
      "ybersecurity": 1882,
      "Ġkindly": 1883,
      "info": 1884,
      "tatateleb": 1885,
      "NR": 1886,
      "TB": 1887,
      "ns": 1888,
      "xN": 1889,
      "ĠSenior": 1890,
      "ĠAss": 1891,
      "ĠNikam": 1892,
      "ĠWadgaonsheri": 1893,
      "ĠOff": 1894,
      "api": 1895,
      "ashikant": 1896,
      "ĠJoshi": 1897,
      "ĠZoho": 1898,
      "Tk": 1899,
      "kar": 1900,
      "let": 1901,
      "lication": 1902,
      "we": 1903,
      "ĠQu": 1904,
      "esday": 1905,
      "onic": 1906,
      "ĠAutom": 1907,
      "Ġear": 1908,
      "Fk": 1909,
      "Gsource": 1910,
      "OU": 1911,
      "iZ": 1912,
      "lwa": 1913,
      "nikam": 1914,
      "âĢĥ": 1915,
      "ating": 1916,
      "Ġmonitor": 1917,
      "ĠSuite": 1918,
      "Delivering": 1919,
      "Rq": 1920,
      "ross": 1921,
      "ĠNot": 1922,
      "ĠWing": 1923,
      "ringcentral": 1924,
      "astercard": 1925,
      "ij": 1926,
      "pinfotech": 1927,
      "Ġthan": 1928,
      "ele": 1929,
      "ĠCyber": 1930,
      "Gl": 1931,
      "OC": 1932,
      "XB": 1933,
      "fd": 1934,
      "Ġ)": 1935,
      "env": 1936,
      "ĠSir": 1937,
      "ellig": 1938,
      "Ġlead": 1939,
      "ext": 1940,
      "dmin": 1941,
      "point": 1942,
      "qg": 1943,
      "Ġsc": 1944,
      "Ġsession": 1945,
      "igur": 1946,
      "ĠCorpor": 1947,
      "174": 1948,
      "eedback": 1949,
      "evelop": 1950,
      "tatatelebusiness": 1951,
      "AP": 1952,
      "Campaign": 1953,
      "Lq": 1954,
      "Pro": 1955,
      "VR": 1956,
      "bW": 1957,
      "pre": 1958,
      "sid": 1959,
      "Ġtag": 1960,
      "Ġsched": 1961,
      "Ġreal": 1962,
      "Ġcurrent": 1963,
      "gram": 1964,
      "ĠReview": 1965,
      "elqCampaign": 1966,
      "558": 1967,
      "outlook": 1968,
      "Ġusing": 1969,
      "elqCampaignId": 1970,
      "AC": 1971,
      "AR": 1972,
      "ER": 1973,
      "FD": 1974,
      "HD": 1975,
      "Jk": 1976,
      "LK": 1977,
      "Qw": 1978,
      "ration": 1979,
      "sure": 1980,
      "266": 1981,
      "ize": 1982,
      "ED": 1983,
      "HN": 1984,
      "Mj": 1985,
      "tcs": 1986,
      "atform": 1987,
      "Ġtech": 1988,
      "ĠAct": 1989,
      "Ġpart": 1990,
      "Ġnotify": 1991,
      "ically": 1992,
      "648": 1993,
      "All": 1994,
      "Op": 1995,
      "Web": 1996,
      "Zl": 1997,
      "po": 1998,
      "vi": 1999,
      "inse": 2000,
      "Ġfree": 2001,
      "Ġind": 2002,
      "Ġbet": 2003,
      "ows": 2004,
      "ople": 2005,
      "Ġconfirm": 2006,
      "0000019": 2007,
      "reddy": 2008,
      "tokenv": 2009,
      "gltcs": 2010,
      "insey": 2011,
      "OV": 2012,
      "Tech": 2013,
      "You": 2014,
      "aw": 2015,
      "ls": 2016,
      "rit": 2017,
      "ty": 2018,
      "vikas": 2019,
      "Ġro": 2020,
      "Ġread": 2021,
      "Ġwell": 2022,
      "Ġdeliver": 2023,
      "ĠRes": 2024,
      "Ġoffer": 2025,
      "Ġ13": 2026,
      "Ġopt": 2027,
      "ĠÂłĠÂł": 2028,
      "EF": 2029,
      "lZ": 2030,
      "Ġthrough": 2031,
      "Ġsame": 2032,
      "Ġreview": 2033,
      "Ġspec": 2034,
      "577": 2035,
      "97": 2036,
      "BF": 2037,
      "Full": 2038,
      "HR": 2039,
      "NG": 2040,
      "atil": 2041,
      "atement": 2042,
      "ĠPolicy": 2043,
      "Ġwish": 2044,
      "Ġproduct": 2045,
      "100966": 2046,
      "ahul": 2047,
      "play": 2048,
      "Associate": 2049,
      "CD": 2050,
      "WS": 2051,
      "qR": 2052,
      "sights": 2053,
      "wor": 2054,
      "xn": 2055,
      "reetings": 2056,
      "ĠCI": 2057,
      "ĠData": 2058,
      "ĠGo": 2059,
      "ĠUse": 2060,
      "image": 2061,
      "aph": 2062,
      "Ġteams": 2063,
      "424": 2064,
      "736": 2065,
      "Business": 2066,
      "Date": 2067,
      "St": 2068,
      "xm": 2069,
      "Ġ00": 2070,
      "Ġjob": 2071,
      "Ġ18": 2072,
      "1739": 2073,
      "Ġget": 2074,
      "405": 2075,
      "286": 2076,
      "eek": 2077,
      "Ġrespect": 2078,
      "report": 2079,
      "Ġplan": 2080,
      "Logo": 2081,
      "elligence": 2082,
      "326": 2083,
      "61": 2084,
      "FB": 2085,
      "ph": 2086,
      "viron": 2087,
      "xQ": 2088,
      "yY": 2089,
      "ys": 2090,
      "Ġ,": 2091,
      "Ġcom": 2092,
      "anget": 2093,
      "Ġthere": 2094,
      "ĠProduct": 2095,
      "Ġtheir": 2096,
      "ĠDo": 2097,
      "Ġlong": 2098,
      "Ġnote": 2099,
      "otation": 2100,
      "mployees": 2101,
      "Ġ=?": 2102,
      "angeti": 2103,
      "An": 2104,
      "Manag": 2105,
      "Vodafone": 2106,
      "aj": 2107,
      "man": 2108,
      "ĠAr": 2109,
      "ĠCore": 2110,
      "pportun": 2111,
      "udha": 2112,
      "čĊčĊĠčĊč": 2113,
      "ĠĠĠĠĠĠĠĠĠĠĠĠĠĠĠĠĠĠĠĠĠĠĠĠĠĠĠĠĠĠĠĠ": 2114,
      "gister": 2115,
      "Ġfeature": 2116,
      "munity": 2117,
      "029": 2118,
      ">>": 2119,
      "Kf": 2120,
      "lid": 2121,
      "wall": 2122,
      "eng": 2123,
      "ĠĠĠĠĠĠĠ": 2124,
      "Ġeff": 2125,
      "tegr": 2126,
      "ebb": 2127,
      "182": 2128,
      "html": 2129,
      "YB": 2130,
      "hound": 2131,
      "less": 2132,
      "reg": 2133,
      "ĠCenter": 2134,
      "obs": 2135,
      "uring": 2136,
      "Ġhigh": 2137,
      "967": 2138,
      "ested": 2139,
      "arketing": 2140,
      "Ġvis": 2141,
      "ĠOne": 2142,
      "signaturehound": 2143,
      "Ġorganization": 2144,
      "719": 2145,
      "AN": 2146,
      "Link": 2147,
      "dell": 2148,
      "ful": 2149,
      "orage": 2150,
      "conferences": 2151,
      "adh": 2152,
      "essag": 2153,
      "ĠUnsubscribe": 2154,
      "ĠLimited": 2155,
      "Ġproceed": 2156,
      "Ġrisk": 2157,
      "ized": 2158,
      "ĠShop": 2159,
      "ÂłÂłÂłÂł": 2160,
      "ĠWhat": 2161,
      "marcom": 2162,
      "Image": 2163,
      "Fl": 2164,
      "PO": 2165,
      "PR": 2166,
      "ale": 2167,
      "alue": 2168,
      "asci": 2169,
      "ĠAccess": 2170,
      "apac": 2171,
      "Ġprovide": 2172,
      "protection": 2173,
      "ascii": 2174,
      "Nm": 2175,
      "hU": 2176,
      "Ġaf": 2177,
      "Ġreg": 2178,
      "ĠEn": 2179,
      "iring": 2180,
      "aikh": 2181,
      "Ġview": 2182,
      "845": 2183,
      "Mu": 2184,
      "OH": 2185,
      "SW": 2186,
      "hY": 2187,
      "new": 2188,
      "wh": 2189,
      "ense": 2190,
      "ont": 2191,
      "ĠGovernance": 2192,
      "ular": 2193,
      "16366": 2194,
      "Ġcontin": 2195,
      "Ġtrans": 2196,
      "ĠStatement": 2197,
      "Ġremoved": 2198,
      "aphics": 2199,
      "GW": 2200,
      "creport": 2201,
      "iY": 2202,
      "io": 2203,
      "ry": 2204,
      "rid": 2205,
      "vodafone": 2206,
      "edIn": 2207,
      "onth": 2208,
      "ĠĠĠĠĠ": 2209,
      "ĠInter": 2210,
      "Ġ>,": 2211,
      "883": 2212,
      "1685": 2213,
      "ĠView": 2214,
      "Ġensure": 2215,
      "Ġenviron": 2216,
      "Ġattachments": 2217,
      "Ġenter": 2218,
      "Ġclick": 2219,
      "Ġaction": 2220,
      "Ġupdate": 2221,
      "150719": 2222,
      "5775": 2223,
      "regate": 2224,
      "1685389": 2225,
      "1507191685389": 2226,
      "'t": 2227,
      "?=": 2228,
      "IND": 2229,
      "WW": 2230,
      "gX": 2231,
      "py": 2232,
      "aca": 2233,
      "Ġtoday": 2234,
      "ĠAtt": 2235,
      "ĠAdmin": 2236,
      "393": 2237,
      "ption": 2238,
      "AI": 2239,
      "ote": 2240,
      "ĠSSD": 2241,
      "ĠMe": 2242,
      "ĠMUMBAI": 2243,
      "ĠTushar": 2244,
      "Ġhope": 2245,
      "indows": 2246,
      "355": 2247,
      "AM": 2248,
      "IL": 2249,
      "Tg": 2250,
      "Uw": 2251,
      "ZD": 2252,
      "pz": 2253,
      "tc": 2254,
      "Ġrecor": 2255,
      "ational": 2256,
      "ols": 2257,
      "ĠLog": 2258,
      "ake": 2259,
      "952": 2260,
      "Ġwhere": 2261,
      "bda": 2262,
      "ĠCorporation": 2263,
      "IQ": 2264,
      "ZY": 2265,
      "ky": 2266,
      "vh": 2267,
      "asy": 2268,
      "Ġpost": 2269,
      "ĠCost": 2270,
      "Ġbl": 2271,
      "ĠInformation": 2272,
      "9856": 2273,
      "ĠVikas": 2274,
      "ishma": 2275,
      "Ġintelligence": 2276,
      "box": 2277,
      "Ġjust": 2278,
      "ĠPlus": 2279,
      "Ġcreated": 2280,
      "032": 2281,
      "Aw": 2282,
      "cms": 2283,
      "jE": 2284,
      "sales": 2285,
      "xw": 2286,
      "Ġover": 2287,
      "ĠDMARC": 2288,
      "ĠWindows": 2289,
      "utodesk": 2290,
      "actions": 2291,
      "efb": 2292,
      "clus": 2293,
      "Ġmak": 2294,
      "abilities": 2295,
      "Ġfailed": 2296,
      "Iw": 2297,
      "her": 2298,
      "ian": 2299,
      "čĊÂł": 2300,
      "ĠSolutions": 2301,
      "ubm": 2302,
      "Ġbut": 2303,
      "ĠDate": 2304,
      "ĠGen": 2305,
      "ĠWay": 2306,
      "posium": 2307,
      "ĠâĦ¢": 2308,
      "nowled": 2309,
      "Ġwhat": 2310,
      "Ġ674440": 2311,
      "Email": 2312,
      "Kindly": 2313,
      "PU": 2314,
      "mart": 2315,
      "Ġsee": 2316,
      "ĠCA": 2317,
      "irst": 2318,
      "Ġemails": 2319,
      "garding": 2320,
      "Ġvulner": 2321,
      "Ġautomat": 2322,
      "Ġearli": 2323,
      "Ag": 2324,
      "Customer": 2325,
      "FA": 2326,
      "Frat": 2327,
      "RW": 2328,
      "ZE": 2329,
      "fdf": 2330,
      "pd": 2331,
      "ya": 2332,
      "isco": 2333,
      "Ġret": 2334,
      "Ġdate": 2335,
      "ĠID": 2336,
      "ĠCol": 2337,
      "ĠCustomer": 2338,
      "ĠUTC": 2339,
      "chan": 2340,
      "rua": 2341,
      "Ġwhich": 2342,
      "dfc": 2343,
      "ĠCont": 2344,
      "Ġother": 2345,
      "Ġafter": 2346,
      "Da": 2347,
      "MW": 2348,
      "Pre": 2349,
      "Rs": 2350,
      "Ym": 2351,
      "jB": 2352,
      "arwan": 2353,
      "iti": 2354,
      "eca": 2355,
      "Ġthreat": 2356,
      "ential": 2357,
      "location": 2358,
      "ĠMem": 2359,
      "ĠNAS": 2360,
      "ira": 2361,
      "Ġattend": 2362,
      "Ġrespond": 2363,
      "EVT": 2364,
      "Ġ67444022": 2365,
      "arwani": 2366,
      "Or": 2367,
      "PS": 2368,
      "VG": 2369,
      "VW": 2370,
      "fore": 2371,
      "hub": 2372,
      "sue": 2373,
      "zo": 2374,
      "int": 2375,
      "ility": 2376,
      "Ġrefer": 2377,
      "ĠMore": 2378,
      "Ġdel": 2379,
      "Ġinv": 2380,
      "999": 2381,
      "Ġuse": 2382,
      "squareLogo": 2383,
      "Ġautomated": 2384,
      "ĠTriggered": 2385,
      "pecial": 2386,
      "Ġdelivered": 2387,
      ":%": 2388,
      "DB": 2389,
      "Iiw": 2390,
      "Nz": 2391,
      "Zm": 2392,
      "Zn": 2393,
      "fcc": 2394,
      "rM": 2395,
      "sophos": 2396,
      "uQ": 2397,
      "ĠMIA": 2398,
      "ĠName": 2399,
      "erson": 2400,
      "1738": 2401,
      "Ġnilesh": 2402,
      "ddca": 2403,
      "Ġreply": 2404,
      "ĠProcess": 2405,
      "Ġcompliance": 2406,
      "Ġcomplet": 2407,
      "Ġacross": 2408,
      "ĠApply": 2409,
      "ĠMIAMI": 2410,
      "1286": 2411,
      "604": 2412,
      "Dell": 2413,
      "Gartner": 2414,
      "HE": 2415,
      "PW": 2416,
      "Vm": 2417,
      "ZS": 2418,
      "jb": 2419,
      "sult": 2420,
      "uF": 2421,
      "Ġquest": 2422,
      "Ġals": 2423,
      "ĠRE": 2424,
      "Ġissue": 2425,
      "Ġwithin": 2426,
      "network": 2427,
      "cience": 2428,
      "ĠEngineer": 2429,
      "********": 2430,
      "029405": 2431,
      "clusive": 2432,
      "Ġalso": 2433,
      "8393": 2434,
      "JQ": 2435,
      "Lx": 2436,
      "TM": 2437,
      "TW": 2438,
      "Tw": 2439,
      "bebb": 2440,
      "iK": 2441,
      "ravindranatha": 2442,
      "vc": 2443,
      "Ġcommunication": 2444,
      "ons": 2445,
      "ade": 2446,
      "Ġhiring": 2447,
      "caae": 2448,
      "chitect": 2449,
      "arket": 2450,
      "473": 2451,
      "community": 2452,
      "985669": 2453,
      "Greetings": 2454,
      "QW": 2455,
      "TU": 2456,
      "pN": 2457,
      "ors": 2458,
      "ĠStr": 2459,
      "Ġregards": 2460,
      "ĠPr": 2461,
      "lement": 2462,
      "Ġbefore": 2463,
      "7804": 2464,
      "754": 2465,
      "9266": 2466,
      "BE": 2467,
      "RE": 2468,
      "ble": 2469,
      "kill": 2470,
      "lu": 2471,
      "wd": 2472,
      "ili": 2473,
      "Ġpract": 2474,
      "Ġinsights": 2475,
      "uri": 2476,
      "50845": 2477,
      "7759": 2478,
      "Ġexperi": 2479,
      "8641": 2480,
      "35549": 2481,
      "926656": 2482,
      "CF": 2483,
      "Look": 2484,
      "No": 2485,
      "Vk": 2486,
      "Ġ24": 2487,
      "rote": 2488,
      "Ġdon": 2489,
      "use": 2490,
      "Ġchan": 2491,
      "Ġev": 2492,
      "ĠNew": 2493,
      "ooA": 2494,
      "ĠWeb": 2495,
      "ific": 2496,
      "Ġabout": 2497,
      "ĠReddy": 2498,
      "ritical": 2499,
      "/-": 2500,
      "GI": 2501,
      "LS": 2502,
      "XJ": 2503,
      "bm": 2504,
      "cK": 2505,
      "sA": 2506,
      "ug": 2507,
      "may": 2508,
      "noreply": 2509,
      "ĠĠĠĠĠĠ": 2510,
      "ĠGlobal": 2511,
      "Ġ19": 2512,
      "ĠWS": 2513,
      "Ġexpert": 2514,
      "ĠComments": 2515,
      "Ġcalls": 2516,
      "ĠOrder": 2517,
      "Ġquestions": 2518,
      "624": 2519,
      "6105": 2520,
      "Bk": 2521,
      "FF": 2522,
      "Join": 2523,
      "NF": 2524,
      "Nk": 2525,
      "Pt": 2526,
      "Ry": 2527,
      "cW": 2528,
      "jZ": 2529,
      "nX": 2530,
      "âĢĬ": 2531,
      "ern": 2532,
      "request": 2533,
      "ision": 2534,
      "Ġhour": 2535,
      "ĠWed": 2536,
      "cknowled": 2537,
      "Ġprivacy": 2538,
      "Ġjoin": 2539,
      "Ġinterested": 2540,
      "ĠAccounts": 2541,
      "onicwall": 2542,
      "Ġregular": 2543,
      "Ġenterprise": 2544,
      "Ġautomatically": 2545,
      "BS": 2546,
      "DR": 2547,
      "Facebook": 2548,
      "Hg": 2549,
      "KS": 2550,
      "NW": 2551,
      "fession": 2552,
      "sonicwall": 2553,
      "yr": 2554,
      "ðŁ": 2555,
      "ĠâĢĩ": 2556,
      "Ġwrote": 2557,
      "Ġthem": 2558,
      "ĠCh": 2559,
      "stand": 2560,
      "ĠEMI": 2561,
      "Ġwithout": 2562,
      "AAAA": 2563,
      "Ġnext": 2564,
      "arna": 2565,
      "čĊčĊčĊčĊčĊčĊčĊčĊčĊčĊčĊčĊčĊčĊčĊčĊ": 2566,
      "Ġclar": 2567,
      "uthent": 2568,
      "ĠGraphics": 2569,
      "1046105": 2570,
      "Ġpayment": 2571,
      "Ġschedule": 2572,
      "AT": 2573,
      "Non": 2574,
      "OK": 2575,
      "PA": 2576,
      "VE": 2577,
      "cisco": 2578,
      "Ġ51": 2579,
      "Ġlogo": 2580,
      "inal": 2581,
      "arget": 2582,
      "ĠAzure": 2583,
      "ĠMar": 2584,
      "Ġhad": 2585,
      "ĠHome": 2586,
      "Ġcost": 2587,
      "board": 2588,
      "uthor": 2589,
      "evelopment": 2590,
      "manent": 2591,
      "ĠMemory": 2592,
      "Add": 2593,
      "CT": 2594,
      "IsIm": 2595,
      "JI": 2596,
      "Yz": 2597,
      "ZG": 2598,
      "aU": 2599,
      "nb": 2600,
      "qW": 2601,
      "Ġ25": 2602,
      "âĢĶ": 2603,
      "čĊĠĠĠ": 2604,
      "uture": 2605,
      "ĠCert": 2606,
      "Ġbuil": 2607,
      "quire": 2608,
      "chal": 2609,
      "Ġstorage": 2610,
      "Ġwhen": 2611,
      "Ġmeeting": 2612,
      "Ġprior": 2613,
      "ĠAdminist": 2614,
      "HC": 2615,
      "Ik": 2616,
      "ITE": 2617,
      "Qi": 2618,
      "Yj": 2619,
      "east": 2620,
      "khan": 2621,
      "tiwari": 2622,
      "wW": 2623,
      "aniket": 2624,
      "ised": 2625,
      "009": 2626,
      "Ġsubscri": 2627,
      "Ġservice": 2628,
      "Ġacknowled": 2629,
      "ĠSubject": 2630,
      "ĠScience": 2631,
      "ected": 2632,
      "quot": 2633,
      "Ġ17": 2634,
      "ĠLtd": 2635,
      "post": 2636,
      "ĠHR": 2637,
      "ĠOper": 2638,
      "Ġconv": 2639,
      "priv": 2640,
      "ween": 2641,
      "Open": 2642,
      "ĠAttend": 2643,
      "TX": 2644,
      "hu": 2645,
      "iJ": 2646,
      "jL": 2647,
      "sd": 2648,
      "xx": 2649,
      "Ġ30": 2650,
      "Ġskill": 2651,
      "ĠSet": 2652,
      "acing": 2653,
      "ĠAutodesk": 2654,
      "ĠMand": 2655,
      "ĠTo": 2656,
      "ĠIST": 2657,
      "emb": 2658,
      "ĠFeb": 2659,
      "Ġorder": 2660,
      "ĠĠĠĠĠĠĠĠĠ": 2661,
      "ĠHow": 2662,
      "ĠConsult": 2663,
      "puter": 2664,
      "ĠAutomated": 2665,
      "Ġlonger": 2666,
      "Ġhours": 2667,
      "Cyberfrat": 2668,
      "bi": 2669,
      "bing": 2670,
      "eat": 2671,
      "ged": 2672,
      "jo": 2673,
      "les": 2674,
      "pay": 2675,
      "tb": 2676,
      "Ġar": 2677,
      "Ġcomm": 2678,
      "Ġ365": 2679,
      "Ġweek": 2680,
      "Ġthey": 2681,
      "Ġpurchase": 2682,
      "ĠTEC": 2683,
      "ĠRo": 2684,
      "Ġinfrastructure": 2685,
      "ĠÂ©": 2686,
      "top": 2687,
      "ĠKhan": 2688,
      "Ġunder": 2689,
      "Community": 2690,
      "ĠEngineering": 2691,
      "Ġdiscussed": 2692,
      "Conf": 2693,
      "Ġapproval": 2694,
      "CW": 2695,
      "QL": 2696,
      "QU": 2697,
      "View": 2698,
      "dW": 2699,
      "gW": 2700,
      "londhe": 2701,
      "qv": 2702,
      "rish": 2703,
      "Ġ@": 2704,
      "Ġgr": 2705,
      "Ġ02": 2706,
      "206": 2707,
      "ĠPR": 2708,
      "ĠAs": 2709,
      "ĠMonitor": 2710,
      "ĠTime": 2711,
      "ustry": 2712,
      "Ġmult": 2713,
      "emon": 2714,
      "017": 2715,
      "ove": 2716,
      "234": 2717,
      "Ġunsubscribe": 2718,
      "Ġadditional": 2719,
      "arning": 2720,
      "Ġplatform": 2721,
      "voice": 2722,
      "Ġstrategy": 2723,
      "ĠNotice": 2724,
      "ĠProcessor": 2725,
      "rishna": 2726,
      "AZ": 2727,
      "CS": 2728,
      "Engine": 2729,
      "Mail": 2730,
      "QT": 2731,
      "Rk": 2732,
      "Vj": 2733,
      "Yh": 2734,
      "lic": 2735,
      "message": 2736,
      "rW": 2737,
      "rive": 2738,
      "yV": 2739,
      "Ġicon": 2740,
      "Ġ98": 2741,
      "Ġdec": 2742,
      "ĠDesign": 2743,
      "ĠDruva": 2744,
      "Ġhapp": 2745,
      "imA": 2746,
      "čĊčĊčĊčĊčĊč": 2747,
      "Ġstep": 2748,
      "onday": 2749,
      "arnag": 2750,
      "Ijo": 2751,
      "Shop": 2752,
      "adhav": 2753,
      "Ġblend": 2754,
      "ĠStrateg": 2755,
      "privacy": 2756,
      "PF": 2757,
      "TS": 2758,
      "Tube": 2759,
      "UF": 2760,
      "Un": 2761,
      "UKf": 2762,
      "Vy": 2763,
      "cH": 2764,
      "ces": 2765,
      "iy": 2766,
      "lj": 2767,
      "mb": 2768,
      "nesday": 2769,
      "rd": 2770,
      "xiZ": 2771,
      "Ġi": 2772,
      "Ġ78": 2773,
      "atest": 2774,
      "Ġremedi": 2775,
      "lore": 2776,
      "ĠTerms": 2777,
      "ĠWan": 2778,
      "ĠLo": 2779,
      "iftekhar": 2780,
      "1741": 2781,
      "28763": 2782,
      "Ġright": 2783,
      "front": 2784,
      "ĠComp": 2785,
      "identiality": 2786,
      "ekUKf": 2787,
      "EVuF": 2788,
      "webinar": 2789,
      "Ġprice": 2790,
      "Ġbetween": 2791,
      "EVuFekUKf": 2792,
      "Hz": 2793,
      "XR": 2794,
      "ej": 2795,
      "nz": 2796,
      "Ġ_": 2797,
      "Ġ26": 2798,
      "ĠâĢĶ": 2799,
      "cel": 2800,
      "utrishna": 2801,
      "ĠSant": 2802,
      "ĠPower": 2803,
      "Ġinc": 2804,
      "ĠCar": 2805,
      "Ġbre": 2806,
      "artment": 2807,
      "173": 2808,
      "IES": 2809,
      "Ġreceiving": 2810,
      "ĠPrivate": 2811,
      "Ġagre": 2812,
      "lications": 2813,
      "LqI": 2814,
      "ĠArchitect": 2815,
      "LinkedIn": 2816,
      "essages": 2817,
      "NonOpen": 2818,
      "ĠAdministration": 2819,
      "ĠTECHN": 2820,
      "NonOpeners": 2821,
      "ASD": 2822,
      "GIES": 2823,
      "Jm": 2824,
      "Jeg": 2825,
      "KK": 2826,
      "OLO": 2827,
      "QG": 2828,
      "Saner": 2829,
      "TN": 2830,
      "kh": 2831,
      "list": 2832,
      "qt": 2833,
      "tel": 2834,
      "Ġregarding": 2835,
      "ĠPay": 2836,
      "ĠMessage": 2837,
      "Ġyear": 2838,
      "ĠRavindranatha": 2839,
      "ĠRahul": 2840,
      "Ġbased": 2841,
      "117": 2842,
      "osh": 2843,
      "Ġlisting": 2844,
      "ĠLIM": 2845,
      "omet": 2846,
      "ĠITSM": 2847,
      "Ġver": 2848,
      "Ġprovid": 2849,
      "ĠDisplay": 2850,
      "ĠAparna": 2851,
      "RqFk": 2852,
      "INDIA": 2853,
      "ooAimA": 2854,
      "ĠOperations": 2855,
      "Ġskills": 2856,
      "Confidentiality": 2857,
      "LqIRqFk": 2858,
      "ĠTECHNOLO": 2859,
      "JegLqIRqFk": 2860,
      "Ġlistings": 2861,
      "ooAimAgr": 2862,
      "ĠTECHNOLOGIES": 2863,
      "BJ": 2864,
      "Druva": 2865,
      "MH": 2866,
      "VJ": 2867,
      "Yx": 2868,
      "zJ": 2869,
      "ita": 2870,
      "ĠSoftware": 2871,
      "ĠPO": 2872,
      "Ġtools": 2873,
      "ada": 2874,
      "Ġdef": 2875,
      "agar": 2876,
      "ĠIt": 2877,
      "040": 2878,
      "Ġlatest": 2879,
      "rice": 2880,
      "erver": 2881,
      "100964": 2882,
      "acking": 2883,
      "Ġattack": 2884,
      "icket": 2885,
      "ĠShashikant": 2886,
      "secure": 2887,
      "Ġreproduce": 2888,
      "iOjE": 2889,
      "gnr": 2890,
      "uvk": 2891,
      "lwaqR": 2892,
      "pportunities": 2893,
      "ITED": 2894,
      "lwaqRg": 2895,
      "Gh": 2896,
      "Sv": 2897,
      "VT": 2898,
      "XH": 2899,
      "eople": 2900,
      "swapnil": 2901,
      "tect": 2902,
      "ype": 2903,
      "zm": 2904,
      "Ġlog": 2905,
      "rend": 2906,
      "itive": 2907,
      "alyst": 2908,
      "Ġsolution": 2909,
      "ict": 2910,
      "icated": 2911,
      "ĠAd": 2912,
      "Ġdirect": 2913,
      "off": 2914,
      "old": 2915,
      "Ġonce": 2916,
      "tra": 2917,
      "106": 2918,
      "Ġra": 2919,
      "Ġreports": 2920,
      "expert": 2921,
      "ready": 2922,
      "Manager": 2923,
      "Ġmake": 2924,
      "ĠLIMITED": 2925,
      "iOjEsIm": 2926,
      "Ey": 2927,
      "Manage": 2928,
      "Qy": 2929,
      "SL": 2930,
      "SecPod": 2931,
      "cI": 2932,
      "my": 2933,
      "qb": 2934,
      "ĠQ": 2935,
      "Ġident": 2936,
      "âĢ¯": 2937,
      "covery": 2938,
      "arant": 2939,
      "alas": 2940,
      "alend": 2941,
      "ĠAWS": 2942,
      "ĠMonday": 2943,
      "ush": 2944,
      "ĠTechnical": 2945,
      "767": 2946,
      "109": 2947,
      "ĠODA": 2948,
      "185": 2949,
      "ĠExt": 2950,
      "RCE": 2951,
      "Ġmanager": 2952,
      "ĠOnline": 2953,
      "Ġlooking": 2954,
      "icious": 2955,
      "ĠDomain": 2956,
      "Ġretur": 2957,
      "change": 2958,
      "uthorized": 2959,
      "arantine": 2960,
      "500": 2961,
      "Akash": 2962,
      "ATE": 2963,
      "DE": 2964,
      "KW": 2965,
      "Ms": 2966,
      "Nf": 2967,
      "Teramind": 2968,
      "Ub": 2969,
      "Uf": 2970,
      "nY": 2971,
      "qo": 2972,
      "xg": 2973,
      "zW": 2974,
      "zv": 2975,
      "âĢĿ": 2976,
      "ĠâĢľ": 2977,
      "amil": 2978,
      "ĠImp": 2979,
      "Ġinst": 2980,
      "term": 2981,
      "terprise": 2982,
      "1009638": 2983,
      "aparnag": 2984,
      "spot": 2985,
      "Ġprevent": 2986,
      "Ġsystems": 2987,
      "ĠCyberFrat": 2988,
      "ĠLogix": 2989,
      "ecause": 2990,
      "Ġ512": 2991,
      "146": 2992,
      "Ar": 2993,
      "BM": 2994,
      "GS": 2995,
      "KV": 2996,
      "LT": 2997,
      "SU": 2998,
      "Ss": 2999,
      "UR": 3000,
      "Uk": 3001,
      "fW": 3002,
      "gmail": 3003,
      "ts": 3004,
      "uT": 3005,
      "čĊĠĠ": 3006,
      "Ġterms": 3007,
      "orks": 3008,
      "Ġsy": 3009,
      "uts": 3010,
      "Ġbecause": 3011,
      "962": 3012,
      "090": 3013,
      "ckinsey": 3014,
      "ĠTeams": 3015,
      "ĠConference": 3016,
      "Ġthreats": 3017,
      "Ġagreement": 3018,
      "CB": 3019,
      "DF": 3020,
      "DMARC": 3021,
      "Jg": 3022,
      "Mm": 3023,
      "Qk": 3024,
      "XW": 3025,
      "Your": 3026,
      "cy": 3027,
      "dn": 3028,
      "dxn": 3029,
      "gc": 3030,
      "more": 3031,
      "sym": 3032,
      "xb": 3033,
      "xs": 3034,
      "arishma": 3035,
      "isks": 3036,
      "ĠTiwari": 3037,
      "250": 3038,
      "Ġevery": 3039,
      "ĠWork": 3040,
      "Register": 3041,
      "alys": 3042,
      "mployee": 3043,
      "ggest": 3044,
      "IVATE": 3045,
      "Ġwebinar": 3046,
      "Ġleaders": 3047,
      "Ġearliest": 3048,
      "dxnm": 3049,
      "symposium": 3050,
      ")(": 3051,
      "FW": 3052,
      "MU": 3053,
      "OG": 3054,
      "PH": 3055,
      "Sr": 3056,
      "Sophos": 3057,
      "Zj": 3058,
      "by": 3059,
      "cm": 3060,
      "ne": 3061,
      "portal": 3062,
      "vY": 3063,
      "zQ": 3064,
      "zT": 3065,
      "reactions": 3066,
      "ord": 3067,
      "Ġsign": 3068,
      "tpos": 3069,
      "ention": 3070,
      "andy": 3071,
      "Ġpage": 3072,
      "enda": 3073,
      "urs": 3074,
      "ĠBh": 3075,
      "ĠBuil": 3076,
      "postpos": 3077,
      "teramind": 3078,
      "3677": 3079,
      "100963": 3080,
      "shi": 3081,
      "453": 3082,
      "ever": 3083,
      "ĠIftekhar": 3084,
      "Ġund": 3085,
      "Ġexport": 3086,
      "rans": 3087,
      "ibility": 3088,
      "cording": 3089,
      "ĠAniket": 3090,
      "ĠActivity": 3091,
      "hubspot": 3092,
      "Ġregularly": 3093,
      "ĠPRIVATE": 3094,
      "Mailer": 3095,
      "Fp": 3096,
      "Kt": 3097,
      "Pr": 3098,
      "PCs": 3099,
      "TT": 3100,
      "UAE": 3101,
      "ZJ": 3102,
      "lY": 3103,
      "pm": 3104,
      "qq": 3105,
      "rs": 3106,
      "vm": 3107,
      "Ġ05": 3108,
      "analytics": 3109,
      "recipient": 3110,
      "ĠPurchase": 3111,
      "ĠTeramind": 3112,
      "not": 3113,
      "olv": 3114,
      "ĠWA": 3115,
      "ĠITOM": 3116,
      "Ġval": 3117,
      "čĊĠč": 3118,
      "0530": 3119,
      "ĠAnalytics": 3120,
      "Ġimprov": 3121,
      "Computer": 3122,
      "ricing": 3123,
      "BCS": 3124,
      "ĉĉĉĉ": 3125,
      "Daemon": 3126,
      "Ġremediation": 3127,
      "alendar": 3128,
      "recipients": 3129,
      "Employees": 3130,
      "Is": 3131,
      "Kn": 3132,
      "LE": 3133,
      "Mastercard": 3134,
      "Page": 3135,
      "RM": 3136,
      "dk": 3137,
      "dt": 3138,
      "fs": 3139,
      "jY": 3140,
      "nici": 3141,
      "phan": 3142,
      "ser": 3143,
      "vT": 3144,
      "yW": 3145,
      "ative": 3146,
      "cept": 3147,
      "ings": 3148,
      "ĠAdd": 3149,
      "ĠMay": 3150,
      "emo": 3151,
      "ppa": 3152,
      "pace": 3153,
      "grade": 3154,
      "ĠThan": 3155,
      "active": 3156,
      "iappa": 3157,
      "Ġshould": 3158,
      "earn": 3159,
      "ustom": 3160,
      "Ġworking": 3161,
      "What": 3162,
      "UnsubscribePage": 3163,
      "ission": 3164,
      "onths": 3165,
      "ĠMeeting": 3166,
      "requested": 3167,
      "ĠCariappa": 3168,
      "GU": 3169,
      "KN": 3170,
      "Tq": 3171,
      "aV": 3172,
      "ax": 3173,
      "bw": 3174,
      "cE": 3175,
      "eD": 3176,
      "figur": 3177,
      "lnt": 3178,
      "nQ": 3179,
      "nk": 3180,
      "008": 3181,
      "Ġsecure": 3182,
      "ĠSubm": 3183,
      "ĠAgg": 3184,
      "maillist": 3185,
      "obile": 3186,
      "ivil": 3187,
      "Ġcybersecurity": 3188,
      "ured": 3189,
      "istant": 3190,
      "ersion": 3191,
      "inde": 3192,
      "ĠBank": 3193,
      "107": 3194,
      "formance": 3195,
      "ruary": 3196,
      "Ġkeep": 3197,
      "374": 3198,
      "ĠProject": 3199,
      "ually": 3200,
      "Ġclient": 3201,
      "ifications": 3202,
      "Ġlinks": 3203,
      "meindia": 3204,
      "Exchange": 3205,
      "Ġrequirements": 3206,
      "dslnt": 3207,
      "cloudfront": 3208,
      "ĠOffice": 3209,
      "AllEmployees": 3210,
      "YouTube": 3211,
      "Ġenvironment": 3212,
      "vhjr": 3213,
      "ĠWednesday": 3214,
      "Ġacknowledge": 3215,
      "nician": 3216,
      "dslntlv": 3217,
      "HW": 3218,
      "Ix": 3219,
      "LA": 3220,
      "NJ": 3221,
      "VX": 3222,
      "az": 3223,
      "flow": 3224,
      "gy": 3225,
      "global": 3226,
      "mW": 3227,
      "mond": 3228,
      "mount": 3229,
      "ned": 3230,
      "sf": 3231,
      "itions": 3232,
      "ecut": 3233,
      "etwork": 3234,
      "Ġyet": 3235,
      "Ġpos": 3236,
      "lex": 3237,
      "Ġbo": 3238,
      "Ġmod": 3239,
      "Ġcyber": 3240,
      "ĠFrid": 3241,
      "177": 3242,
      "alleng": 3243,
      "uide": 3244,
      "Ġproject": 3245,
      "Ġcontain": 3246,
      "052": 3247,
      "ĠProgram": 3248,
      "Ġappro": 3249,
      "ĠShaikh": 3250,
      "Ġerrors": 3251,
      "Ġmailbox": 3252,
      "Ġimpact": 3253,
      "Ġbackup": 3254,
      "ĠFebruary": 3255,
      "amila": 3256,
      "ĠFriday": 3257,
      "##": 3258,
      "199": 3259,
      "AB": 3260,
      "Fy": 3261,
      "HB": 3262,
      "ON": 3263,
      "OQ": 3264,
      "Os": 3265,
      "PD": 3266,
      "Phone": 3267,
      "eal": 3268,
      "feedback": 3269,
      "nN": 3270,
      "raveena": 3271,
      "tW": 3272,
      "tJZ": 3273,
      "ua": 3274,
      "âĢ¢": 3275,
      "ĠSur": 3276,
      "unita": 3277,
      "ĠFHD": 3278,
      "che": 3279,
      "ĠBy": 3280,
      "shad": 3281,
      "Ġgive": 3282,
      "Ġcontro": 3283,
      "Ġtraining": 3284,
      "Ġchance": 3285,
      "Ġquick": 3286,
      "dmar": 3287,
      "Ġagain": 3288,
      "ĠRedmond": 3289,
      "ĠEmails": 3290,
      "Ġincluded": 3291,
      "Ġstrategies": 3292,
      "Ġmonitoring": 3293,
      "ilience": 3294,
      "fessionals": 3295,
      "ĠThanks": 3296,
      "101": 3297,
      "103": 3298,
      "BX": 3299,
      "CTV": 3300,
      "FY": 3301,
      "Iy": 3302,
      "Ly": 3303,
      "MG": 3304,
      "Res": 3305,
      "YS": 3306,
      "ZX": 3307,
      "cU": 3308,
      "hWV": 3309,
      "jW": 3310,
      "jata": 3311,
      "ny": 3312,
      "sfc": 3313,
      "Ġnetwork": 3314,
      "cover": 3315,
      "oup": 3316,
      "edu": 3317,
      "Ġse": 3318,
      "Ġfloor": 3319,
      "Ġrel": 3320,
      "ĠPortal": 3321,
      "Ġpartner": 3322,
      "opyr": 3323,
      "ĠLondhe": 3324,
      "706": 3325,
      "108": 3326,
      "385": 3327,
      "ĠJoin": 3328,
      "ĠClar": 3329,
      "Website": 3330,
      "tegration": 3331,
      "ZYYA": 3332,
      "Preview": 3333,
      "ersonal": 3334,
      "Ġexperience": 3335,
      "Ġ98052": 3336,
      "alysis": 3337,
      "hWVZYYA": 3338,
      "opyright": 3339,
      "#]": 3340,
      "Al": 3341,
      "Az": 3342,
      "CH": 3343,
      "PE": 3344,
      "WZ": 3345,
      "bp": 3346,
      "sk": 3347,
      "uk": 3348,
      "reap": 3349,
      "iscon": 3350,
      "Ġfeedback": 3351,
      "amp": 3352,
      "Ġmarketing": 3353,
      "Ġcase": 3354,
      "ĠGupta": 3355,
      "ĠBlv": 3356,
      "ift": 3357,
      "Ġ411": 3358,
      "čĊčĊčĊčĊčĊčĊčĊč": 3359,
      "ĠThurs": 3360,
      "omware": 3361,
      "ĠValue": 3362,
      "ĠJadhav": 3363,
      "ĠStre": 3364,
      "ameer": 3365,
      "Ġquotation": 3366,
      "Ġrequirement": 3367,
      "Ġ##]": 3368,
      "elease": 3369,
      "Ġrecord": 3370,
      "Ġcompleted": 3371,
      "ĠBlvd": 3372,
      "874": 3373,
      "955": 3374,
      "BD": 3375,
      "Cl": 3376,
      "FR": 3377,
      "Fj": 3378,
      "GMT": 3379,
      "HL": 3380,
      "Ia": 3381,
      "SN": 3382,
      "Sz": 3383,
      "XP": 3384,
      "bE": 3385,
      "dp": 3386,
      "dw": 3387,
      "qA": 3388,
      "qf": 3389,
      "sur": 3390,
      "security": 3391,
      "uy": 3392,
      "Ġow": 3393,
      "Ġ04": 3394,
      "ined": 3395,
      "arcl": 3396,
      "Ġsend": 3397,
      "ĠPatil": 3398,
      "ĠAnt": 3399,
      "Ġdue": 3400,
      "Ġmessages": 3401,
      "ĠDev": 3402,
      "ĠDangeti": 3403,
      "endor": 3404,
      "Ġhand": 3405,
      "Ġhard": 3406,
      "Ġ156": 3407,
      "ĠLead": 3408,
      "Ġorphan": 3409,
      "cial": 3410,
      "Ġopen": 3411,
      "Ġconfigur": 3412,
      "head": 3413,
      "Ġoperations": 3414,
      "munication": 3415,
      "Ġ2700": 3416,
      "Ġvulnerabilities": 3417,
      "Ġsubscribing": 3418,
      "office": 3419,
      "ĠSubmitter": 3420,
      "ĠAggregate": 3421,
      "dmarcreport": 3422,
      "isconfigur": 3423,
      "Ġowner": 3424,
      "arclays": 3425,
      ":[": 3426,
      "CR": 3427,
      "KT": 3428,
      "Lenovo": 3429,
      "Nl": 3430,
      "Not": 3431,
      "Ph": 3432,
      "Per": 3433,
      "VU": 3434,
      "WT": 3435,
      "Ya": 3436,
      "dj": 3437,
      "gupta": 3438,
      "jA": 3439,
      "jS": 3440,
      "jh": 3441,
      "min": 3442,
      "mandy": 3443,
      "patil": 3444,
      "ĨĴ": 3445,
      "iles": 3446,
      "Ġsubject": 3447,
      "ĠSender": 3448,
      "Ġpatch": 3449,
      "ĠCCTV": 3450,
      "Ġmost": 3451,
      "ĠDevelopment": 3452,
      "240": 3453,
      "9900": 3454,
      "9923": 3455,
      "ĠâĨĴ": 3456,
      "Ġbeing": 3457,
      "287": 3458,
      "izations": 3459,
      "Ġdoing": 3460,
      "3501": 3461,
      "ĠExp": 3462,
      "hip": 3463,
      "ĠAlerts": 3464,
      "ĠPlan": 3465,
      "Ġ950": 3466,
      "Ġfeel": 3467,
      "cnN": 3468,
      "perty": 3469,
      "Rla": 3470,
      "ĠQuotation": 3471,
      "JkZW": 3472,
      "Ġcontinu": 3473,
      "pzt": 3474,
      "IiwiY": 3475,
      "ushik": 3476,
      "utsche": 3477,
      ":[##": 3478,
      "SP": 3479,
      "Sc": 3480,
      "Vz": 3481,
      "cx": 3482,
      "dD": 3483,
      "dCI": 3484,
      "hes": 3485,
      "kn": 3486,
      "lp": 3487,
      "qr": 3488,
      "uZ": 3489,
      "uesday": 3490,
      "vb": 3491,
      "vind": 3492,
      "xC": 3493,
      "Ġel": 3494,
      "Ġgsourcedata": 3495,
      "core": 3496,
      "atp": 3497,
      "ĠSwapnil": 3498,
      "Ġpr": 3499,
      "Ġdev": 3500,
      "261": 3501,
      "Ġmiss": 3502,
      "110": 3503,
      "Ġcred": 3504,
      "Ġ>;": 3505,
      "884": 3506,
      "ĠOut": 3507,
      "Ġrisks": 3508,
      "eyJkZW": 3509,
      "Ġimplement": 3510,
      "GVyV": 3511,
      "lwaGVyV": 3512,
      "Ġcurrently": 3513,
      "ZlcnN": 3514,
      "Ġ786": 3515,
      "Ġbreak": 3516,
      "Ġverified": 3517,
      "iOjEsIml": 3518,
      "cordingly": 3519,
      "tJZCI": 3520,
      "ĠThursday": 3521,
      "eyJkZWtJZCI": 3522,
      "lwaGVyVGV": 3523,
      "ZlcnNpb": 3524,
      "Ch": 3525,
      "Cloud": 3526,
      "Er": 3527,
      "GM": 3528,
      "Gener": 3529,
      "Hw": 3530,
      "NM": 3531,
      "PC": 3532,
      "RT": 3533,
      "Rep": 3534,
      "TD": 3535,
      "Twitter": 3536,
      "service": 3537,
      "vel": 3538,
      "ywan": 3539,
      "anna": 3540,
      "rect": 3541,
      "Ġticket": 3542,
      "alvi": 3543,
      "sources": 3544,
      "maz": 3545,
      "Ġfuture": 3546,
      "ĠPalas": 3547,
      "ĠAuthorized": 3548,
      "Ġdep": 3549,
      "Ġdeg": 3550,
      "Ġinfo": 3551,
      "und": 3552,
      "113": 3553,
      "Ġissu": 3554,
      "čĊčĊčĊčĊÂł": 3555,
      "aily": 3556,
      "284": 3557,
      "783": 3558,
      "ĠJobs": 3559,
      "ĠAnalyst": 3560,
      "ansomware": 3561,
      "Location": 3562,
      "Ġshared": 3563,
      "Exp": 3564,
      "Ġincluding": 3565,
      "Ġ020": 3566,
      "ĠTrigger": 3567,
      "ĠApartment": 3568,
      "Project": 3569,
      "Ġoption": 3570,
      "ĠÂłĠÂłĠÂłĠÂł": 3571,
      "ĠWhatsA": 3572,
      "ĠContact": 3573,
      "boarding": 3574,
      "Address": 3575,
      "ushikesh": 3576,
      "ywanshi": 3577,
      "ĠPalaskar": 3578,
      "Ġdegree": 3579,
      "ĠWhatsApp": 3580,
      "526": 3581,
      "Account": 3582,
      "BK": 3583,
      "BW": 3584,
      "Book": 3585,
      "DW": 3586,
      "GC": 3587,
      "My": 3588,
      "NU": 3589,
      "OX": 3590,
      "PG": 3591,
      "Pavan": 3592,
      "QS": 3593,
      "SR": 3594,
      "VM": 3595,
      "Vl": 3596,
      "Zh": 3597,
      "Zt": 3598,
      "Zy": 3599,
      "cz": 3600,
      "gs": 3601,
      "ges": 3602,
      "mi": 3603,
      "pected": 3604,
      "side": 3605,
      "Ġtake": 3606,
      "esc": 3607,
      "andard": 3608,
      "agesh": 3609,
      "ĠRelease": 3610,
      "ĠDu": 3611,
      "asswor": 3612,
      "247": 3613,
      "chi": 3614,
      "opt": 3615,
      "ĠHi": 3616,
      "100965": 3617,
      "406": 3618,
      "ĠProperty": 3619,
      "Ġneeds": 3620,
      "Ġalong": 3621,
      "blend": 3622,
      "Ġremove": 3623,
      "Ġloc": 3624,
      "Technical": 3625,
      "Ġrespective": 3626,
      "Looking": 3627,
      "cKinsey": 3628,
      "ĠSanta": 3629,
      "ometric": 3630,
      "10096451": 3631,
      "ĠClara": 3632,
      "ĠAnti": 3633,
      "Ġ95054": 3634,
      "956": 3635,
      "=/": 3636,
      "AU": 3637,
      "At": 3638,
      "Cyber": 3639,
      "Critical": 3640,
      "Jb": 3641,
      "MC": 3642,
      "MX": 3643,
      "Qm": 3644,
      "SA": 3645,
      "Tata": 3646,
      "Team": 3647,
      "XN": 3648,
      "Xh": 3649,
      "dH": 3650,
      "dangeti": 3651,
      "ft": 3652,
      "kx": 3653,
      "mastercard": 3654,
      "rl": 3655,
      "rant": 3656,
      "vey": 3657,
      "Ġhttp": 3658,
      "ĠčĊčĊč": 3659,
      "alk": 3660,
      "Ġsub": 3661,
      "Ġfaster": 3662,
      "elle": 3663,
      "icip": 3664,
      "ĠTuesday": 3665,
      "Ġdet": 3666,
      "ĠCo": 3667,
      "ĠDist": 3668,
      "ĠDNS": 3669,
      "ectual": 3670,
      "station": 3671,
      "Ġ2011": 3672,
      "584": 3673,
      "7022": 3674,
      "ĠHard": 3675,
      "3815": 3676,
      "1606": 3677,
      "ellectual": 3678,
      "Ġexclusive": 3679,
      "461": 3680,
      "ondition": 3681,
      "851606": 3682,
      "Ġapply": 3683,
      "Ġleave": 3684,
      "ĠExcel": 3685,
      "ĠIntellectual": 3686,
      "Ġpreferences": 3687,
      "tings": 3688,
      "Glare": 3689,
      "ĠEnterprise": 3690,
      "Ġunderstand": 3691,
      "Ġsteps": 3692,
      "ĠLogo": 3693,
      "146851606": 3694,
      "Generic": 3695,
      "1468516067022": 3696,
      "De": 3697,
      "En": 3698,
      "GN": 3699,
      "Iz": 3700,
      "Jh": 3701,
      "Jw": 3702,
      "Ni": 3703,
      "QV": 3704,
      "Tm": 3705,
      "center": 3706,
      "dE": 3707,
      "dK": 3708,
      "dz": 3709,
      "help": 3710,
      "ii": 3711,
      "jJ": 3712,
      "pW": 3713,
      "qw": 3714,
      "sident": 3715,
      "ui": 3716,
      "vk": 3717,
      "xk": 3718,
      "xp": 3719,
      "inmay": 3720,
      "Ġtim": 3721,
      "aries": 3722,
      "ĠSum": 3723,
      "ĠPvt": 3724,
      "ĠMission": 3725,
      "Ġpricing": 3726,
      "Ġbest": 3727,
      "Ġmany": 3728,
      "Ġmisconfigur": 3729,
      "str": 3730,
      "ĠUl": 3731,
      "eamless": 3732,
      "otal": 3733,
      "ĠVis": 3734,
      "akatp": 3735,
      "4810": 3736,
      "ĠKindly": 3737,
      "373": 3738,
      "bcada": 3739,
      "Ġalready": 3740,
      "enses": 3741,
      "================================================================": 3742,
      "Ġmonitored": 3743,
      "Ġclarification": 3744,
      "uthentication": 3745,
      "ĠMandanna": 3746,
      "11726": 3747,
      "ggestions": 3748,
      "hesity": 3749,
      "Ġissues": 3750,
      "akatpure": 3751,
      "840": 3752,
      "BH": 3753,
      "Ck": 3754,
      "ET": 3755,
      "How": 3756,
      "KY": 3757,
      "MB": 3758,
      "OF": 3759,
      "Pf": 3760,
      "Qn": 3761,
      "Yn": 3762,
      "dl": 3763,
      "fm": 3764,
      "fort": 3765,
      "mg": 3766,
      "pact": 3767,
      "rm": 3768,
      "zz": 3769,
      "âĦ¢": 3770,
      "Ġfull": 3771,
      "Ġreference": 3772,
      "Ġduring": 3773,
      "lege": 3774,
      "nov": 3775,
      "user": 3776,
      "ustr": 3777,
      "ĠNumb": 3778,
      "ortant": 3779,
      "Ġlic": 3780,
      "čĊčĊčĊčĊčĊčĊč": 3781,
      "102": 3782,
      "Ġname": 3783,
      "akers": 3784,
      "scale": 3785,
      "ccur": 3786,
      "272": 3787,
      "DCI": 3788,
      "NTU": 3789,
      "Ġlearn": 3790,
      "7488": 3791,
      "Ġreporting": 3792,
      "MIA": 3793,
      "architect": 3794,
      "MTU": 3795,
      "teams": 3796,
      "ĠTraining": 3797,
      "Ġnumber": 3798,
      "ganization": 3799,
      "SOU": 3800,
      "ĠGround": 3801,
      "Ġrespects": 3802,
      "ÂłÂłÂłÂłÂłÂłÂłÂł": 3803,
      "Ġcontinue": 3804,
      "ĠCollege": 3805,
      "Ġexperts": 3806,
      "ĠConsultant": 3807,
      "Ijoi": 3808,
      "gnrindia": 3809,
      "BU": 3810,
      "Bj": 3811,
      "BxQ": 3812,
      "Could": 3813,
      "LRS": 3814,
      "NI": 3815,
      "OL": 3816,
      "Our": 3817,
      "RZn": 3818,
      "Yy": 3819,
      "Zz": 3820,
      "digest": 3821,
      "goo": 3822,
      "gregate": 3823,
      "lW": 3824,
      "mt": 3825,
      "parwani": 3826,
      "rb": 3827,
      "rz": 3828,
      "with": 3829,
      "enant": 3830,
      "ites": 3831,
      "Ġahead": 3832,
      "ĠAc": 3833,
      "ĠAchal": 3834,
      "Ġprom": 3835,
      "ĠTarget": 3836,
      "Ġdmar": 3837,
      "ĠIs": 3838,
      "ĠCre": 3839,
      "ems": 3840,
      "uled": 3841,
      "thers": 3842,
      "416": 3843,
      "Ġcond": 3844,
      "160": 3845,
      "aking": 3846,
      "608": 3847,
      "Ġstay": 3848,
      "7425": 3849,
      "Ġquote": 3850,
      "Ġaggregate": 3851,
      "suggestions": 3852,
      "Ġaccordingly": 3853,
      "Ġorganizations": 3854,
      "ĠClick": 3855,
      "creportfeedback": 3856,
      "Ġcommunications": 3857,
      "Ġsync": 3858,
      "MIAMI": 3859,
      "SOURCE": 3860,
      "Ġdmarcreportfeedback": 3861,
      "756": 3862,
      "=&": 3863,
      "Do": 3864,
      "Et": 3865,
      "GR": 3866,
      "Gz": 3867,
      "Hey": 3868,
      "LAs": 3869,
      "NX": 3870,
      "Pad": 3871,
      "Qb": 3872,
      "Rw": 3873,
      "UT": 3874,
      "Vp": 3875,
      "Yok": 3876,
      "Zk": 3877,
      "aAZ": 3878,
      "cvW": 3879,
      "dT": 3880,
      "gar": 3881,
      "mat": 3882,
      "qJI": 3883,
      "tap": 3884,
      "yTg": 3885,
      "Ġ]": 3886,
      "Ġ9923": 3887,
      "iting": 3888,
      "ional": 3889,
      "ĠSpecial": 3890,
      "elo": 3891,
      "Ġrev": 3892,
      "ĠParwani": 3893,
      "icial": 3894,
      "agtap": 3895,
      "ĠINR": 3896,
      "ĠCard": 3897,
      "ĠCondition": 3898,
      "usp": 3899,
      "users": 3900,
      "Ġmin": 3901,
      "ĠDe": 3902,
      "ĠDays": 3903,
      "ĠNOW": 3904,
      "ĠFacing": 3905,
      "aving": 3906,
      "abhu": 3907,
      "ĠBest": 3908,
      "ciO": 3909,
      "wadi": 3910,
      "435": 3911,
      "ĠManage": 3912,
      "akcvW": 3913,
      "MDqg": 3914,
      "7714": 3915,
      "Ġstre": 3916,
      "========================": 3917,
      "qlr": 3918,
      "Mzk": 3919,
      "GBqlr": 3920,
      "Ġworkflow": 3921,
      "Ġpermanent": 3922,
      "Ġ67444": 3923,
      "OVMD": 3924,
      "ĠCISO": 3925,
      "gXUf": 3926,
      "jBf": 3927,
      "iKA": 3928,
      "ĠPrabhu": 3929,
      "Ġpractical": 3930,
      "ĠAttendance": 3931,
      "YhgXUf": 3932,
      "ĠWanwadi": 3933,
      "webinars": 3934,
      "Ġ411040": 3935,
      "BxQGBqlr": 3936,
      "LRSYok": 3937,
      "RZnjBf": 3938,
      "LAsMDqg": 3939,
      "aAZpzt": 3940,
      "yTgqv": 3941,
      "akcvWiKA": 3942,
      "YhgXUfakcvWiKA": 3943,
      "LAsMDqgt": 3944,
      "+%": 3945,
      ">>;": 3946,
      "Jz": 3947,
      "LL": 3948,
      "Mk": 3949,
      "VL": 3950,
      "YU": 3951,
      "Yq": 3952,
      "cC": 3953,
      "do": 3954,
      "gz": 3955,
      "lz": 3956,
      "nel": 3957,
      "nam": 3958,
      "qU": 3959,
      "sudha": 3960,
      "war": 3961,
      "xU": 3962,
      "Ġ60": 3963,
      "enreap": 3964,
      "itt": 3965,
      "âĢĭâĢĭ": 3966,
      "eld": 3967,
      "Ġdown": 3968,
      "ĠRem": 3969,
      "Ġman": 3970,
      "Ġmention": 3971,
      "ĠGoogle": 3972,
      "essions": 3973,
      "ĠUpd": 3974,
      "oper": 3975,
      "ifQ": 3976,
      "172": 3977,
      "ĠRequire": 3978,
      "Ġ40": 3979,
      "ĠTechnician": 3980,
      "shaikh": 3981,
      "449": 3982,
      "MDAw": 3983,
      "Ġstart": 3984,
      "NDc": 3985,
      "Ġrequested": 3986,
      "rowser": 3987,
      "clickup": 3988,
      "ĠPresident": 3989,
      "dGhU": 3990,
      "YWciO": 3991,
      "dhage": 3992,
      "Ġsuccess": 3993,
      "ĠProducts": 3994,
      "âĢĬĊĊ": 3995,
      "Ġconveni": 3996,
      "assword": 3997,
      "========================================================================================": 3998,
      "ĠNumber": 3999,
      "748866": 4000,
      "Ġ9923748866": 4001,
      "uspicious": 4002,
      "dGhUYWciO": 4003,
      "=========================================================================================": 4004,
      "BR": 4005,
      "First": 4006,
      "JW": 4007,
      "Jl": 4008,
      "Lr": 4009,
      "Qz": 4010,
      "Sn": 4011,
      "Vw": 4012,
      "Xp": 4013,
      "ZC": 4014,
      "aim": 4015,
      "bG": 4016,
      "but": 4017,
      "ders": 4018,
      "hv": 4019,
      "hance": 4020,
      "js": 4021,
      "ling": 4022,
      "rupt": 4023,
      "uu": 4024,
      "Ġalert": 4025,
      "Ġtrend": 4026,
      "Ġsel": 4027,
      "Ġsim": 4028,
      "ands": 4029,
      "ĠPartner": 4030,
      "ether": 4031,
      "ĠAmount": 4032,
      "ĠMonths": 4033,
      "ĠCybersecurity": 4034,
      "116": 4035,
      "Ġcap": 4036,
      "019": 4037,
      "index": 4038,
      "Ġused": 4039,
      "Ġredu": 4040,
      "MDc": 4041,
      "Ġexplore": 4042,
      "682": 4043,
      "rict": 4044,
      "bowls": 4045,
      "preferences": 4046,
      ">.": 4047,
      "Can": 4048,
      "DL": 4049,
      "FS": 4050,
      "Ie": 4051,
      "JD": 4052,
      "Jobs": 4053,
      "ME": 4054,
      "Qv": 4055,
      "RL": 4056,
      "VF": 4057,
      "Vu": 4058,
      "Yv": 4059,
      "gx": 4060,
      "iqu": 4061,
      "kw": 4062,
      "lg": 4063,
      "national": 4064,
      "qQ": 4065,
      "sn": 4066,
      "xK": 4067,
      "inate": 4068,
      "ĠĠĠâĢĩ": 4069,
      "aging": 4070,
      "ĠChan": 4071,
      "ĠDrive": 4072,
      "ective": 4073,
      "Ġcle": 4074,
      "Ġemployees": 4075,
      "endesign": 4076,
      "241": 4077,
      "opendesign": 4078,
      "Ġlive": 4079,
      "5812": 4080,
      "ĠHigh": 4081,
      "989": 4082,
      "212": 4083,
      "formarket": 4084,
      "Ġglobal": 4085,
      "Ġstill": 4086,
      "490": 4087,
      "LURU": 4088,
      "Request": 4089,
      "Ġcompany": 4090,
      "ency": 4091,
      "gartnerformarket": 4092,
      "Ġquer": 4093,
      "MDQAAAGZ": 4094,
      "Ġoffers": 4095,
      "Ġdiscussion": 4096,
      "----------------------------------------------------------------": 4097,
      "Ġindustry": 4098,
      "Ġcomments": 4099,
      "entials": 4100,
      "Ġdelet": 4101,
      "ĠCertification": 4102,
      "Ġmultip": 4103,
      "ĠPowerpoint": 4104,
      "olving": 4105,
      "ealth": 4106,
      "MTUAAAG": 4107,
      "LURUQi": 4108,
      "gartnerformarketers": 4109,
      "609": 4110,
      "Ft": 4111,
      "Fz": 4112,
      "Fwww": 4113,
      "Hk": 4114,
      "Hq": 4115,
      "Head": 4116,
      "OE": 4117,
      "Sl": 4118,
      "Ur": 4119,
      "Xz": 4120,
      "Zw": 4121,
      "aW": 4122,
      "bh": 4123,
      "eW": 4124,
      "gent": 4125,
      "hL": 4126,
      "jw": 4127,
      "jz": 4128,
      "kW": 4129,
      "lr": 4130,
      "mx": 4131,
      "yu": 4132,
      "onym": 4133,
      "coming": 4134,
      "arrant": 4135,
      "ceiv": 4136,
      "Ġretry": 4137,
      "Ġrecovery": 4138,
      "ĠPart": 4139,
      "ĠTele": 4140,
      "ublic": 4141,
      "2520": 4142,
      "580": 4143,
      "ĠHead": 4144,
      "415": 4145,
      "acks": 4146,
      "Ġconsid": 4147,
      "Ġgener": 4148,
      "18499": 4149,
      "NDg": 4150,
      "07385": 4151,
      "Ġothers": 4152,
      "ensive": 4153,
      "ĠApplications": 4154,
      "Assistant": 4155,
      "ĠPrevent": 4156,
      "dhutrishna": 4157,
      "Ġreaching": 4158,
      "Cont": 4159,
      "ulnerability": 4160,
      "Ġenvironments": 4161,
      "zoh": 4162,
      "Ġreturning": 4163,
      "Ġconditions": 4164,
      "onymous": 4165,
      "arranty": 4166,
      "1849907385": 4167,
      "6009": 4168,
      "936": 4169,
      "945": 4170,
      ">>,": 4171,
      "Ev": 4172,
      "FG": 4173,
      "FH": 4174,
      "Fe": 4175,
      "GX": 4176,
      "Gd": 4177,
      "IC": 4178,
      "JX": 4179,
      "Jira": 4180,
      "KI": 4181,
      "Mw": 4182,
      "NH": 4183,
      "Nabil": 4184,
      "QB": 4185,
      "Security": 4186,
      "Time": 4187,
      "VS": 4188,
      "YT": 4189,
      "Yw": 4190,
      "ZB": 4191,
      "bj": 4192,
      "cst": 4193,
      "ging": 4194,
      "jay": 4195,
      "kg": 4196,
      "kj": 4197,
      "lish": 4198,
      "mB": 4199,
      "nal": 4200,
      "sw": 4201,
      "xc": 4202,
      "ater": 4203,
      "enance": 4204,
      "ored": 4205,
      "Ġsales": 4206,
      "Ġsuspicious": 4207,
      "ĠDh": 4208,
      "118": 4209,
      "Ġcustom": 4210,
      "ose": 4211,
      "empt": 4212,
      "013": 4213,
      "ĠLearn": 4214,
      "178": 4215,
      "elqcs": 4216,
      "elqcst": 4217,
      "Think": 4218,
      "ribut": 4219,
      "386": 4220,
      "ferral": 4221,
      "46284": 4222,
      "Ġmeet": 4223,
      "8793": 4224,
      "Why": 4225,
      "72008": 4226,
      "WVB": 4227,
      "opeople": 4228,
      "Ġsuch": 4229,
      "crm": 4230,
      "Ġattendance": 4231,
      "Ġinvite": 4232,
      "IsImF": 4233,
      "2065812": 4234,
      "orkspace": 4235,
      "Ġvalid": 4236,
      "Ġ1567425": 4237,
      "99003": 4238,
      "ceived": 4239,
      "zohopeople": 4240,
      "elqcsid": 4241,
      "Ġ156742531": 4242,
      "904": 4243,
      "909": 4244,
      "Ad": 4245,
      "Ca": 4246,
      "Ctc": 4247,
      "Fg": 4248,
      "Follow": 4249,
      "GZ": 4250,
      "HP": 4251,
      "IP": 4252,
      "IAAAG": 4253,
      "JJ": 4254,
      "Jp": 4255,
      "Let": 4256,
      "Mv": 4257,
      "PN": 4258,
      "TG": 4259,
      "TR": 4260,
      "Total": 4261,
      "Ut": 4262,
      "VD": 4263,
      "data": 4264,
      "dem": 4265,
      "fy": 4266,
      "iaries": 4267,
      "nS": 4268,
      "sW": 4269,
      "sites": 4270,
      "wo": 4271,
      "Ġï»¿": 4272,
      "alary": 4273,
      "madhutrishna": 4274,
      "ĠSophos": 4275,
      "Ġdetail": 4276,
      "ĠCopyright": 4277,
      "una": 4278,
      "256": 4279,
      "ĠDue": 4280,
      "------": 4281,
      "ĠLic": 4282,
      "Ġ42": 4283,
      "70526": 4284,
      "čĊčĊčĊčĊčĊÂł": 4285,
      "218": 4286,
      "force": 4287,
      "408": 4288,
      "Ġcoord": 4289,
      "Ġmade": 4290,
      "Information": 4291,
      "ĠAny": 4292,
      "Ġspot": 4293,
      "itors": 4294,
      "Ġopportun": 4295,
      "ĠPlatform": 4296,
      "sidiaries": 4297,
      "Ġready": 4298,
      "php": 4299,
      "IsImRla": 4300,
      "ember": 4301,
      "Ġarran": 4302,
      "Engineering": 4303,
      "Ġraised": 4304,
      "17770526": 4305,
      "Ġconfiguration": 4306,
      "Ġsubsidiaries": 4307,
      "ĠSumm": 4308,
      "ĠSpecialist": 4309,
      "Ġmentioned": 4310,
      "ĠUpdate": 4311,
      "Ġopportunity": 4312,
      "1777052651": 4313,
      "136": 4314,
      "688": 4315,
      "ACC": 4316,
      "DS": 4317,
      "Fv": 4318,
      "Fwd": 4319,
      "HQ": 4320,
      "Jj": 4321,
      "LY": 4322,
      "MK": 4323,
      "MP": 4324,
      "MUMBAI": 4325,
      "OS": 4326,
      "QD": 4327,
      "Rh": 4328,
      "Rn": 4329,
      "VV": 4330,
      "With": 4331,
      "XL": 4332,
      "ZL": 4333,
      "cG": 4334,
      "cY": 4335,
      "jm": 4336,
      "lh": 4337,
      "qp": 4338,
      "qz": 4339,
      "vy": 4340,
      "xL": 4341,
      "Â·": 4342,
      "Ġ01": 4343,
      "ouse": 4344,
      "res": 4345,
      "arshad": 4346,
      "ecess": 4347,
      "ĠSat": 4348,
      "ĠSee": 4349,
      "Ġfile": 4350,
      "ĠPeople": 4351,
      "ĠRushikesh": 4352,
      "251": 4353,
      "111": 4354,
      "ĠGST": 4355,
      "Ġhead": 4356,
      "ĠNetwork": 4357,
      "umar": 4358,
      "303": 4359,
      "ĠWest": 4360,
      "ĠWith": 4361,
      "ĠWorkspace": 4362,
      "ĠLet": 4363,
      "ĠLPA": 4364,
      "ĠReal": 4365,
      "380": 4366,
      "Ġcons": 4367,
      "Ġprofessionals": 4368,
      "Ġgrow": 4369,
      "Ġusers": 4370,
      "eval": 4371,
      "Ġkey": 4372,
      "Ġmaint": 4373,
      "viewer": 4374,
      "Ġrequests": 4375,
      "Ġstrong": 4376,
      "Ġaccounts": 4377,
      "ĠDisable": 4378,
      "Njky": 4379,
      "Ġoptim": 4380,
      "Ġspecific": 4381,
      "Ġvisibility": 4382,
      "hUT": 4383,
      "PUE": 4384,
      "****************": 4385,
      "Ġhappy": 4386,
      "Ġincident": 4387,
      "Ġapproach": 4388,
      "ĠUltra": 4389,
      "Ġmultiple": 4390,
      "ecessary": 4391,
      "),": 4392,
      "510": 4393,
      "704": 4394,
      "AL": 4395,
      "AVN": 4396,
      "Azure": 4397,
      "Fa": 4398,
      "Gq": 4399,
      "JU": 4400,
      "Nn": 4401,
      "Om": 4402,
      "Pk": 4403,
      "Qj": 4404,
      "RD": 4405,
      "Tushar": 4406,
      "ahar": 4407,
      "bV": 4408,
      "bs": 4409,
      "eet": 4410,
      "gener": 4411,
      "jari": 4412,
      "ners": 4413,
      "pv": 4414,
      "pdf": 4415,
      "qE": 4416,
      "qi": 4417,
      "ways": 4418,
      "xW": 4419,
      "ator": 4420,
      "athan": 4421,
      "reen": 4422,
      "eservices": 4423,
      "htra": 4424,
      "ashtra": 4425,
      "Ġaud": 4426,
      "ĠServer": 4427,
      "lock": 4428,
      "ames": 4429,
      "Ġpolicy": 4430,
      "Ġpower": 4431,
      "Ġday": 4432,
      "ĠRs": 4433,
      "ĠRaveena": 4434,
      "ending": 4435,
      "urde": 4436,
      "ction": 4437,
      "emets": 4438,
      "due": 4439,
      "chek": 4440,
      "Ġlast": 4441,
      "Ġ2051": 4442,
      "emailWeb": 4443,
      "ĠOur": 4444,
      "antosh": 4445,
      "447": 4446,
      "akash": 4447,
      "Ġexceed": 4448,
      "cbre": 4449,
      "Ġversion": 4450,
      "Ġ\"<": 4451,
      "153": 4452,
      "Inter": 4453,
      "ixed": 4454,
      "Ġ650": 4455,
      "USV": 4456,
      "ĠWhich": 4457,
      "NSWVB": 4458,
      "ODFl": 4459,
      "zZjA": 4460,
      "ĠAsset": 4461,
      "TkNSWVB": 4462,
      "Ġbetter": 4463,
      "Agenda": 4464,
      "Ġchange": 4465,
      "NFTkNSWVB": 4466,
      "ĠPayment": 4467,
      "Ġclear": 4468,
      "NDgzZjA": 4469,
      "ĠDhage": 4470,
      "NjkyODFl": 4471,
      "PUEhUT": 4472,
      "AVNPUEhUT": 4473,
      "aharashtra": 4474,
      "emetschek": 4475,
      "emailWebview": 4476,
      "NFTkNSWVBUSV": 4477,
      "NDgzZjAxN": 4478,
      "NjkyODFlNTU": 4479,
      "121": 4480,
      "747": 4481,
      "Bg": 4482,
      "By": 4483,
      "CA": 4484,
      "EA": 4485,
      "Easy": 4486,
      "HI": 4487,
      "JF": 4488,
      "Ks": 4489,
      "Mn": 4490,
      "Nh": 4491,
      "Pc": 4492,
      "Pw": 4493,
      "Pay": 4494,
      "Sy": 4495,
      "TQ": 4496,
      "YQ": 4497,
      "cer": 4498,
      "dX": 4499,
      "dZ": 4500,
      "easy": 4501,
      "iW": 4502,
      "ie": 4503,
      "je": 4504,
      "mor": 4505,
      "nH": 4506,
      "qN": 4507,
      "ws": 4508,
      "Ġ09": 4509,
      "atgar": 4510,
      "itib": 4511,
      "Ġsome": 4512,
      "enture": 4513,
      "Ġaff": 4514,
      "ĠSecure": 4515,
      "Ġrenew": 4516,
      "ĠPract": 4517,
      "lot": 4518,
      "ette": 4519,
      "čĊčĊčĊĠ": 4520,
      "ĠAl": 4521,
      "ĠAt": 4522,
      "ĠTrans": 4523,
      "ĠCred": 4524,
      "Ġmanage": 4525,
      "ĠGuide": 4526,
      "quette": 4527,
      "olve": 4528,
      "lassian": 4529,
      "321": 4530,
      "abor": 4531,
      "037": 4532,
      "tracking": 4533,
      "Ġnecessary": 4534,
      "illing": 4535,
      "Ġprogram": 4536,
      "Ġgap": 4537,
      "519": 4538,
      "bookwith": 4539,
      "ĠKarishma": 4540,
      "Ġexisting": 4541,
      "Ġvendor": 4542,
      "udo": 4543,
      "apply": 4544,
      "Ġalign": 4545,
      "mains": 4546,
      "itionally": 4547,
      "Ġfeatures": 4548,
      "ĠInternet": 4549,
      "ĠInternational": 4550,
      "Ġclicking": 4551,
      "Ġvulnerability": 4552,
      "Ġreferral": 4553,
      "Ġdelay": 4554,
      "REGI": 4555,
      "261248": 4556,
      "ĠDuquette": 4557,
      "Ġmisconfigurations": 4558,
      "morrow": 4559,
      "bookwithme": 4560,
      "940": 4561,
      "Ax": 4562,
      "Bh": 4563,
      "Ew": 4564,
      "Fs": 4565,
      "JB": 4566,
      "JY": 4567,
      "KC": 4568,
      "Ky": 4569,
      "Kz": 4570,
      "Lf": 4571,
      "Mx": 4572,
      "Ol": 4573,
      "Price": 4574,
      "Qt": 4575,
      "RQ": 4576,
      "Rf": 4577,
      "UU": 4578,
      "XY": 4579,
      "fl": 4580,
      "gd": 4581,
      "kZ": 4582,
      "lx": 4583,
      "mQ": 4584,
      "mZ": 4585,
      "nav": 4586,
      "rYA": 4587,
      "sr": 4588,
      "vl": 4589,
      "âľ": 4590,
      "Ġ08": 4591,
      "ines": 4592,
      "atus": 4593,
      "anu": 4594,
      "anonymous": 4595,
      "resources": 4596,
      "alu": 4597,
      "002": 4598,
      "Ġsm": 4599,
      "ently": 4600,
      "Ġad": 4601,
      "ĠSales": 4602,
      "eleservices": 4603,
      "Ġwho": 4604,
      "Ġtop": 4605,
      "Ġtomorrow": 4606,
      "ĠTata": 4607,
      "agged": 4608,
      "ĠCivil": 4609,
      "ushi": 4610,
      "ives": 4611,
      "Ġmove": 4612,
      "Ġcard": 4613,
      "Ġcustomer": 4614,
      "epar": 4615,
      "oot": 4616,
      "ooth": 4617,
      "963": 4618,
      "orts": 4619,
      "Ġ100": 4620,
      "ĠBhar": 4621,
      "ĠHere": 4622,
      "links": 4623,
      "Ġvalue": 4624,
      "When": 4625,
      "RSe": 4626,
      "Ġcreate": 4627,
      "Once": 4628,
      "Ġtechnology": 4629,
      "Management": 4630,
      "engage": 4631,
      "Ġrecording": 4632,
      "Ġposts": 4633,
      "marter": 4634,
      "Ġchanges": 4635,
      "embers": 4636,
      "ĠRock": 4637,
      "ĠMonitoring": 4638,
      "Ġdirectly": 4639,
      "ĠStreet": 4640,
      "Reply": 4641,
      "ĠDistrict": 4642,
      "/_": 4643,
      "Dy": 4644,
      "Don": 4645,
      "ES": 4646,
      "EX": 4647,
      "Ez": 4648,
      "Eng": 4649,
      "GT": 4650,
      "Gb": 4651,
      "IO": 4652,
      "Io": 4653,
      "It": 4654,
      "Jq": 4655,
      "KcE": 4656,
      "Mar": 4657,
      "NB": 4658,
      "Nw": 4659,
      "Ny": 4660,
      "Off": 4661,
      "PI": 4662,
      "Us": 4663,
      "ZF": 4664,
      "ZH": 4665,
      "aHR": 4666,
      "bL": 4667,
      "bQ": 4668,
      "cw": 4669,
      "eh": 4670,
      "hr": 4671,
      "ier": 4672,
      "jQ": 4673,
      "ka": 4674,
      "lagged": 4675,
      "mal": 4676,
      "messag": 4677,
      "pc": 4678,
      "px": 4679,
      "sSv": 4680,
      "santosh": 4681,
      "tm": 4682,
      "ĊâĢĬĊĊ": 4683,
      "incip": 4684,
      "ana": 4685,
      "Ġtak": 4686,
      "ones": 4687,
      "ases": 4688,
      "Ġseamless": 4689,
      "ĠShar": 4690,
      "Ġfinal": 4691,
      "Ġfiles": 4692,
      "208": 4693,
      "ĠPhone": 4694,
      "eth": 4695,
      "Ġintegr": 4696,
      "Ġinnov": 4697,
      "ĠCan": 4698,
      "Ġmust": 4699,
      "ĠGSOURCE": 4700,
      "quarantine": 4701,
      "older": 4702,
      "ĠFw": 4703,
      "ĠFull": 4704,
      "ully": 4705,
      "ĠUs": 4706,
      "ĠLink": 4707,
      "ĠRead": 4708,
      "the": 4709,
      "031": 4710,
      "ĠOpportunities": 4711,
      "shinde": 4712,
      "213": 4713,
      "0942": 4714,
      "efined": 4715,
      "Ġgartner": 4716,
      "seudo": 4717,
      "ashback": 4718,
      "Ġattempt": 4719,
      "Ġwhy": 4720,
      "ĠComput": 4721,
      "teamviewer": 4722,
      "Ġactiv": 4723,
      "Ġable": 4724,
      "Ġsoon": 4725,
      "Ġscan": 4726,
      "preference": 4727,
      "Ġparticip": 4728,
      "Ġspecial": 4729,
      "MuGW": 4730,
      "NonOpenersFollow": 4731,
      "allenges": 4732,
      "Ġcontinuous": 4733,
      "xCLK": 4734,
      "ĠRequirement": 4735,
      "Ġconvenience": 4736,
      "Ġselect": 4737,
      "ĠChange": 4738,
      "rYAN": 4739,
      "messaging": 4740,
      "MuGWrYAN": 4741,
      "NonOpenersFollowUp": 4742,
      "226": 4743,
      "315": 4744,
      "713": 4745,
      "Av": 4746,
      "Db": 4747,
      "Fi": 4748,
      "Ge": 4749,
      "Get": 4750,
      "Hb": 4751,
      "Here": 4752,
      "IS": 4753,
      "JT": 4754,
      "KU": 4755,
      "Ltb": 4756,
      "RP": 4757,
      "RX": 4758,
      "TH": 4759,
      "UC": 4760,
      "UD": 4761,
      "VC": 4762,
      "Vn": 4763,
      "Wall": 4764,
      "WnY": 4765,
      "Yk": 4766,
      "Zp": 4767,
      "ZvT": 4768,
      "aJQ": 4769,
      "cX": 4770,
      "direct": 4771,
      "dRSe": 4772,
      "fD": 4773,
      "gu": 4774,
      "hm": 4775,
      "hensive": 4776,
      "jvW": 4777,
      "lw": 4778,
      "mckinsey": 4779,
      "oz": 4780,
      "qk": 4781,
      "ture": 4782,
      "ux": 4783,
      "vD": 4784,
      "vQ": 4785,
      "wzJ": 4786,
      "xim": 4787,
      "yp": 4788,
      "zip": 4789,
      "zqs": 4790,
      "zaU": 4791,
      "Â©": 4792,
      "ince": 4793,
      "cohesity": 4794,
      "reci": 4795,
      "arm": 4796,
      "ising": 4797,
      "Ġsir": 4798,
      "ĠSr": 4799,
      "loc": 4800,
      "čĊčĊčĊ": 4801,
      "ĠAdv": 4802,
      "ĠMaharashtra": 4803,
      "Ġdif": 4804,
      "obe": 4805,
      "Ġmark": 4806,
      "ĠDalvi": 4807,
      "Ġcritical": 4808,
      "ĠGener": 4809,
      "ngth": 4810,
      "ĠNov": 4811,
      "orth": 4812,
      "ayushi": 4813,
      "ĠUp": 4814,
      "inder": 4815,
      "ĠInf": 4816,
      "ĠInfrastructure": 4817,
      "posal": 4818,
      "rix": 4819,
      "708": 4820,
      "ĠThu": 4821,
      "438": 4822,
      "Ġgreat": 4823,
      "ccenture": 4824,
      "ybZvT": 4825,
      "MDNk": 4826,
      "Ġdoes": 4827,
      "Ġenhance": 4828,
      "ĠCommunity": 4829,
      "STER": 4830,
      "Ġresilience": 4831,
      "Ġassess": 4832,
      "Ġoperational": 4833,
      "dmKcE": 4834,
      "ĠAllPCs": 4835,
      "ansion": 4836,
      "ĠSym": 4837,
      "CES": 4838,
      "Ġapproved": 4839,
      "Ġendpoint": 4840,
      "karishma": 4841,
      "onicWall": 4842,
      "bWNf": 4843,
      "OHO": 4844,
      "hYs": 4845,
      "Ġactionable": 4846,
      "Iiwic": 4847,
      "LookAgenda": 4848,
      "ĠWebsites": 4849,
      "payscale": 4850,
      "ĠRoad": 4851,
      "cHM": 4852,
      "Ġincre": 4853,
      "ĠAdobe": 4854,
      "JgBk": 4855,
      "Ġundefined": 4856,
      "mazon": 4857,
      "escri": 4858,
      "dGhUYWciOiJ": 4859,
      "FirstLookAgenda": 4860,
      "sSvdRSe": 4861,
      "ĠSharma": 4862,
      "LtbMs": 4863,
      "wzJL": 4864,
      "zqsy": 4865,
      "ybZvTbWNf": 4866,
      "dmKcEJgBk": 4867,
      "sSvdRSeqo": 4868,
      "ybZvTbWNfLtbMs": 4869,
      "856": 4870,
      "Bf": 4871,
      "Bat": 4872,
      "CP": 4873,
      "Ds": 4874,
      "Data": 4875,
      "Download": 4876,
      "EM": 4877,
      "EO": 4878,
      "Fh": 4879,
      "Fr": 4880,
      "GK": 4881,
      "GL": 4882,
      "Gr": 4883,
      "JC": 4884,
      "LX": 4885,
      "Np": 4886,
      "Ns": 4887,
      "RY": 4888,
      "Rt": 4889,
      "Su": 4890,
      "Sudha": 4891,
      "UW": 4892,
      "Uy": 4893,
      "Vq": 4894,
      "Vng": 4895,
      "Vikas": 4896,
      "YD": 4897,
      "ZT": 4898,
      "cu": 4899,
      "dJ": 4900,
      "hRy": 4901,
      "mith": 4902,
      "sence": 4903,
      "tj": 4904,
      "tsh": 4905,
      "vLx": 4906,
      "wy": 4907,
      "xf": 4908,
      "xpa": 4909,
      "Ġid": 4910,
      "Ġown": 4911,
      "Ġcommunity": 4912,
      "oun": 4913,
      "orcom": 4914,
      "onathan": 4915,
      "Ġauthentication": 4916,
      "Ġfully": 4917,
      "209": 4918,
      "ĠPrice": 4919,
      "acd": 4920,
      "aced": 4921,
      "čĊčĊâĢĬ": 4922,
      "ĠAustr": 4923,
      "ĠMcKinsey": 4924,
      "Ġphone": 4925,
      "Ġchar": 4926,
      "ĠGet": 4927,
      "ĠGTM": 4928,
      "owered": 4929,
      "ĠEvent": 4930,
      "170": 4931,
      "thing": 4932,
      "erview": 4933,
      "1009619": 4934,
      "allusers": 4935,
      "Ġ31": 4936,
      "Ġnotification": 4937,
      "Ġconference": 4938,
      "168": 4939,
      "comms": 4940,
      "Ġprotection": 4941,
      "785": 4942,
      "eeks": 4943,
      "Ġdomain": 4944,
      "ĠJira": 4945,
      "Ġtrust": 4946,
      "Ġtrigg": 4947,
      "Ġann": 4948,
      "Ġrespons": 4949,
      "ĠCommunication": 4950,
      "roved": 4951,
      "VNQ": 4952,
      "Ġprevi": 4953,
      "void": 4954,
      "olicies": 4955,
      "Ġupdates": 4956,
      "NjY": 4957,
      "ratik": 4958,
      "Ġearly": 4959,
      "QwqA": 4960,
      "BFd": 4961,
      "works": 4962,
      "UwMDNk": 4963,
      "ZEvLx": 4964,
      "mayuri": 4965,
      "uthenticated": 4966,
      "XHUwMDNk": 4967,
      "Ġlogin": 4968,
      "Ubv": 4969,
      "KNLU": 4970,
      "Ġboth": 4971,
      "Ġprojects": 4972,
      "Ġseems": 4973,
      "operations": 4974,
      "Contact": 4975,
      "Ġdetailed": 4976,
      "ĠComputers": 4977,
      "WnYr": 4978,
      "zaUdf": 4979,
      "IiwicF": 4980,
      "Ġprevious": 4981,
      "'d": 4982,
      "-_": 4983,
      "522": 4984,
      "626": 4985,
      "669": 4986,
      "AW": 4987,
      "Ae": 4988,
      "Bl": 4989,
      "Bng": 4990,
      "COH": 4991,
      "Fm": 4992,
      "GH": 4993,
      "Lz": 4994,
      "LXJ": 4995,
      "NC": 4996,
      "Nx": 4997,
      "OI": 4998,
      "PZ": 4999,
      "QC": 5000,
      "QQ": 5001,
      "RH": 5002,
      "RV": 5003,
      "Rm": 5004,
      "SAI": 5005,
      "Ty": 5006,
      "TRs": 5007,
      "Xn": 5008,
      "Yea": 5009,
      "ZU": 5010,
      "Zo": 5011,
      "Zu": 5012,
      "aX": 5013,
      "based": 5014,
      "cg": 5015,
      "dtg": 5016,
      "eT": 5017,
      "gL": 5018,
      "hf": 5019,
      "hk": 5020,
      "hp": 5021,
      "hIQ": 5022,
      "lq": 5023,
      "mobile": 5024,
      "njN": 5025,
      "oIa": 5026,
      "pn": 5027,
      "sz": 5028,
      "saV": 5029,
      "ton": 5030,
      "vs": 5031,
      "wS": 5032,
      "wr": 5033,
      "xt": 5034,
      "zk": 5035,
      "ath": 5036,
      "anies": 5037,
      "edicated": 5038,
      "itation": 5039,
      "itch": 5040,
      "itesh": 5041,
      "alance": 5042,
      "road": 5043,
      "ĠSudha": 5044,
      "ĠPer": 5045,
      "ĠTCES": 5046,
      "Ġde": 5047,
      "ĠCamila": 5048,
      "ively": 5049,
      "Ġclass": 5050,
      "Ġcho": 5051,
      "epend": 5052,
      "ural": 5053,
      "Ġhear": 5054,
      "0100": 5055,
      "ĠFlagged": 5056,
      "966": 5057,
      "968": 5058,
      "ĠWarranty": 5059,
      "ĠInfo": 5060,
      "1740": 5061,
      "886": 5062,
      "rior": 5063,
      "Ġbeh": 5064,
      "achine": 5065,
      "ants": 5066,
      "485": 5067,
      "Ġgot": 5068,
      "Ġgovernance": 5069,
      "claim": 5070,
      "280": 5071,
      "Ġrepl": 5072,
      "000000": 5073,
      "397": 5074,
      "AGlj": 5075,
      "Ġapplications": 5076,
      "Ġappreci": 5077,
      "ĠStandard": 5078,
      "7558": 5079,
      "ĠExecut": 5080,
      "ulti": 5081,
      "voYea": 5082,
      "Ġoffice": 5083,
      "veJ": 5084,
      "sujata": 5085,
      "Ġwebsite": 5086,
      "jNQG": 5087,
      "SSKY": 5088,
      "pecsaV": 5089,
      "Ġamount": 5090,
      "Ġscheduled": 5091,
      "CDqf": 5092,
      "Ġplanning": 5093,
      "adhutrishna": 5094,
      "ILEr": 5095,
      "Iwtsh": 5096,
      "Organization": 5097,
      "uQeD": 5098,
      "pNgW": 5099,
      "Ġcommer": 5100,
      "BJsf": 5101,
      "ManageEngine": 5102,
      "KVQ": 5103,
      "SUCDqf": 5104,
      "hubspotlinks": 5105,
      "KnTq": 5106,
      "ĠMayuri": 5107,
      "GUoIa": 5108,
      "nQhIQ": 5109,
      "Ġposs": 5110,
      "Ġmodern": 5111,
      "YaSAI": 5112,
      "Ġcredentials": 5113,
      "ĠVisual": 5114,
      "CkSUCDqf": 5115,
      "Ġmanual": 5116,
      "Ġexceeded": 5117,
      "jvWSSKY": 5118,
      "ĠSymposium": 5119,
      "escription": 5120,
      "BatA": 5121,
      "COHme": 5122,
      "njNvoYea": 5123,
      "AGljnjNvoYea": 5124,
      "jNQGu": 5125,
      "pecsaVAGljnjNvoYea": 5126,
      "ILErpNgW": 5127,
      "IwtshjvWSSKY": 5128,
      "BJsfEE": 5129,
      "GUoIaCkSUCDqf": 5130,
      "YaSAIBng": 5131,
      "pecsaVAGljnjNvoYeazv": 5132,
      "IwtshjvWSSKYSS": 5133,
      "GUoIaCkSUCDqfKnTq": 5134,
      "&_": 5135,
      "'m": 5136,
      "346": 5137,
      "476": 5138,
      "5783": 5139,
      "758": 5140,
      "743": 5141,
      "7386": 5142,
      "809": 5143,
      "926": 5144,
      "AY": 5145,
      "Ah": 5146,
      "BT": 5147,
      "Bd": 5148,
      "DO": 5149,
      "ELO": 5150,
      "Good": 5151,
      "HZ": 5152,
      "JK": 5153,
      "Js": 5154,
      "Limited": 5155,
      "MF": 5156,
      "Mt": 5157,
      "OB": 5158,
      "OOK": 5159,
      "Po": 5160,
      "Power": 5161,
      "Uv": 5162,
      "Vc": 5163,
      "Vice": 5164,
      "Yi": 5165,
      "di": 5166,
      "gal": 5167,
      "gand": 5168,
      "jg": 5169,
      "nx": 5170,
      "nabil": 5171,
      "pS": 5172,
      "xA": 5173,
      "yw": 5174,
      "Ġ06": 5175,
      "atra": 5176,
      "enef": 5177,
      "enpact": 5178,
      "Ġtest": 5179,
      "ute": 5180,
      "andup": 5181,
      "ĠSQL": 5182,
      "Ġfast": 5183,
      "icks": 5184,
      "account": 5185,
      "Ġdemo": 5186,
      "Ġinvoice": 5187,
      "ĠCentral": 5188,
      "unch": 5189,
      "Ġbr": 5190,
      "Ġmembers": 5191,
      "Ġcare": 5192,
      "Ġeach": 5193,
      "Ġhaving": 5194,
      "ĠFrom": 5195,
      "ĠFree": 5196,
      "ĠEaster": 5197,
      "pare": 5198,
      "Ġ4000": 5199,
      "7096": 5200,
      "707558": 5201,
      "action": 5202,
      "ĠOp": 5203,
      "achal": 5204,
      "sender": 5205,
      "169": 5206,
      "235": 5207,
      "2712": 5208,
      "Ġcontract": 5209,
      "Ġupgrade": 5210,
      "3543": 5211,
      "Ġdesigned": 5212,
      "Training": 5213,
      "Ġdatab": 5214,
      "79250": 5215,
      "Ġautomation": 5216,
      "Ġperformance": 5217,
      "831": 5218,
      "Ġupdated": 5219,
      "Ġwanted": 5220,
      "000001955": 5221,
      "Ġrole": 5222,
      "Ġearlier": 5223,
      "Ġevalu": 5224,
      "QUA": 5225,
      "Ġyears": 5226,
      "ĠWorkstation": 5227,
      "ĠBhandup": 5228,
      "lexible": 5229,
      "AzL": 5230,
      "Permanent": 5231,
      "ĠDeals": 5232,
      "Ġgenerated": 5233,
      "unauthenticated": 5234,
      "REGISTER": 5235,
      "eparate": 5236,
      "ĠBharne": 5237,
      "claimer": 5238,
      "ELOQUA": 5239,
      "gandhi": 5240,
      "ĠEastern": 5241,
      "Ġ400078": 5242,
      "!!": 5243,
      "488": 5244,
      "535": 5245,
      "803": 5246,
      "939": 5247,
      "Ac": 5248,
      "CL": 5249,
      "Camila": 5250,
      "Dis": 5251,
      "Fc": 5252,
      "FDD": 5253,
      "Go": 5254,
      "HS": 5255,
      "Ir": 5256,
      "Kind": 5257,
      "LP": 5258,
      "NQ": 5259,
      "Ne": 5260,
      "Ow": 5261,
      "QY": 5262,
      "Qx": 5263,
      "Rg": 5264,
      "SH": 5265,
      "Sj": 5266,
      "WQ": 5267,
      "XC": 5268,
      "Xpo": 5269,
      "YY": 5270,
      "_-": 5271,
      "aef": 5272,
      "bn": 5273,
      "cast": 5274,
      "fq": 5275,
      "ipt": 5276,
      "nB": 5277,
      "oh": 5278,
      "oq": 5279,
      "qH": 5280,
      "qT": 5281,
      "qe": 5282,
      "rr": 5283,
      "uch": 5284,
      "vert": 5285,
      "vers": 5286,
      "yMDQAAAG": 5287,
      "Ġ?": 5288,
      "Ġ23": 5289,
      "ĠðŁ": 5290,
      "anj": 5291,
      "rel": 5292,
      "Ġtail": 5293,
      "alent": 5294,
      "map": 5295,
      "Ġserver": 5296,
      "Ġwor": 5297,
      "ĠAud": 5298,
      "Ġportal": 5299,
      "ĠIP": 5300,
      "ĠRisk": 5301,
      "ĠChar": 5302,
      "Ġmuch": 5303,
      "ĠDay": 5304,
      "ĠDaily": 5305,
      "imary": 5306,
      "307": 5307,
      "char": 5308,
      "ĠBurre": 5309,
      "ebm": 5310,
      "1009623": 5311,
      "1009635": 5312,
      "ovind": 5313,
      "442": 5314,
      "ĠVulnerability": 5315,
      "aker": 5316,
      "ffb": 5317,
      "softtech": 5318,
      "client": 5319,
      "Ġexecut": 5320,
      "460": 5321,
      "Ġravindranatha": 5322,
      "Ġvia": 5323,
      "izing": 5324,
      "Ġcor": 5325,
      "ĠYear": 5326,
      "Ġshashikant": 5327,
      "Ġadded": 5328,
      "aaS": 5329,
      "Ġexplo": 5330,
      "ĠStud": 5331,
      "ĠStaging": 5332,
      "Ġdisrupt": 5333,
      "MTAzL": 5334,
      "Ġstrict": 5335,
      "ideo": 5336,
      "Ġoutside": 5337,
      "Ġfinds": 5338,
      "Ġavailability": 5339,
      "Ġabove": 5340,
      "Ġbusinesses": 5341,
      "protect": 5342,
      "ĠClient": 5343,
      "Ġgoing": 5344,
      "Ġjobs": 5345,
      "Ġvisit": 5346,
      "fully": 5347,
      "ĠColl": 5348,
      "ĠSettings": 5349,
      "ĠCompliance": 5350,
      "ample": 5351,
      "Ġlocations": 5352,
      "itted": 5353,
      "11699": 5354,
      "ĠSummary": 5355,
      "Ġdelayed": 5356,
      "âľħ": 5357,
      "čĊčĊâĢĬčĊč": 5358,
      "VNQRS": 5359,
      "ĠExecutive": 5360,
      "ĠBurrewar": 5361,
      "1009623909": 5362,
      "MTAzLVNQRS": 5363,
      "'ll": 5364,
      "141": 5365,
      "138": 5366,
      "140": 5367,
      "950": 5368,
      "9763": 5369,
      "Ap": 5370,
      "Che": 5371,
      "COM": 5372,
      "Desk": 5373,
      "FT": 5374,
      "Fo": 5375,
      "FMT": 5376,
      "Gk": 5377,
      "Gs": 5378,
      "Gy": 5379,
      "Hv": 5380,
      "High": 5381,
      "Lp": 5382,
      "NV": 5383,
      "Pv": 5384,
      "Pna": 5385,
      "SK": 5386,
      "UV": 5387,
      "XS": 5388,
      "Xg": 5389,
      "YX": 5390,
      "ZR": 5391,
      "bT": 5392,
      "bu": 5393,
      "fS": 5394,
      "fnz": 5395,
      "hKF": 5396,
      "iRU": 5397,
      "iometric": 5398,
      "kPt": 5399,
      "lM": 5400,
      "lk": 5401,
      "lm": 5402,
      "lt": 5403,
      "nW": 5404,
      "ojS": 5405,
      "pY": 5406,
      "ris": 5407,
      "risk": 5408,
      "sks": 5409,
      "tal": 5410,
      "ven": 5411,
      "vRy": 5412,
      "way": 5413,
      "yg": 5414,
      "you": 5415,
      "yakatpure": 5416,
      "Ġ70": 5417,
      "Ġ89": 5418,
      "integration": 5419,
      "edge": 5420,
      "resp": 5421,
      "rehensive": 5422,
      "Ġtit": 5423,
      "ource": 5424,
      "ises": 5425,
      "ason": 5426,
      "006": 5427,
      "Ġsur": 5428,
      "Ġsubm": 5429,
      "ĠSolution": 5430,
      "ĠPh": 5431,
      "ĠPOC": 5432,
      "ĠMod": 5433,
      "ĠMarketing": 5434,
      "Ġpersonal": 5435,
      "aditib": 5436,
      "Ġdrive": 5437,
      "ages": 5438,
      "Ġbas": 5439,
      "Ġclo": 5440,
      "Ġequ": 5441,
      "Ġevent": 5442,
      "tore": 5443,
      "Ġyours": 5444,
      "ĠBahad": 5445,
      "ĠInvoice": 5446,
      "irt": 5447,
      "irtel": 5448,
      "ĠLal": 5449,
      "ĠList": 5450,
      "ĠLevel": 5451,
      "171": 5452,
      "769": 5453,
      "Ġnits": 5454,
      "ĠOther": 5455,
      "omkar": 5456,
      "ford": 5457,
      "JOojS": 5458,
      "446": 5459,
      "ĠVodafone": 5460,
      "2300": 5461,
      "scloud": 5462,
      "275": 5463,
      "Ġrun": 5464,
      "ements": 5465,
      "nder": 5466,
      "295": 5467,
      "riven": 5468,
      "Ġcover": 5469,
      "Ġshow": 5470,
      "059": 5471,
      "Ġwhile": 5472,
      "Ġapplication": 5473,
      "ĠShast": 5474,
      "ĠComfort": 5475,
      "Ġtimeout": 5476,
      "8399": 5477,
      "Ġactivity": 5478,
      "ĠEngineers": 5479,
      "sugandhi": 5480,
      "iciency": 5481,
      "IVE": 5482,
      "Ġlocation": 5483,
      "crs": 5484,
      "xNl": 5485,
      "AllPCs": 5486,
      "Ġindepend": 5487,
      "awscloud": 5488,
      "Ġroom": 5489,
      "ĠĠĠĠĠĠĠĠĠĠĠĠĠĠĠĠĠĠĠĠĠĠĠĠĠĠĠĠĠĠĠĠĠĠĠĠĠĠĠĠĠĠĠĠĠĠĠĠ": 5490,
      "xwv": 5491,
      "PSIsImF": 5492,
      "Ġcomplete": 5493,
      "TUWT": 5494,
      "Ġpriority": 5495,
      "Ġconvers": 5496,
      "Ġcomms": 5497,
      "Ġplatforms": 5498,
      "ĠArchitecture": 5499,
      "Ġraise": 5500,
      "EyL": 5501,
      "Ukb": 5502,
      "NJcI": 5503,
      "mWUkb": 5504,
      "ĠSurvey": 5505,
      "Respected": 5506,
      "Ġdevices": 5507,
      "Ġreduce": 5508,
      "9363": 5509,
      "Ġcommercial": 5510,
      "PnaTUWT": 5511,
      "hKFdT": 5512,
      "kPtvRy": 5513,
      "sksPnaTUWT": 5514,
      "response": 5515,
      "ĠBahadur": 5516,
      "ĠShastri": 5517,
      "ĠComfortView": 5518,
      "kPtvRyiRU": 5519,
      "sksPnaTUWTHg": 5520,
      ",âĢĿ": 5521,
      "120": 5522,
      "300": 5523,
      "400": 5524,
      "524": 5525,
      "::": 5526,
      "BL": 5527,
      "CV": 5528,
      "Corpor": 5529,
      "Dd": 5530,
      "FO": 5531,
      "Fw": 5532,
      "Femail": 5533,
      "Gu": 5534,
      "Gupta": 5535,
      "Hh": 5536,
      "JL": 5537,
      "JR": 5538,
      "Ju": 5539,
      "LD": 5540,
      "Me": 5541,
      "Mi": 5542,
      "Mr": 5543,
      "Nur": 5544,
      "Pva": 5545,
      "Rr": 5546,
      "Sign": 5547,
      "Ul": 5548,
      "VA": 5549,
      "VQ": 5550,
      "Vd": 5551,
      "Vg": 5552,
      "Vh": 5553,
      "ZIk": 5554,
      "aTS": 5555,
      "bH": 5556,
      "bv": 5557,
      "clo": 5558,
      "case": 5559,
      "cVJ": 5560,
      "disk": 5561,
      "eag": 5562,
      "eeb": 5563,
      "eakers": 5564,
      "fj": 5565,
      "iX": 5566,
      "kv": 5567,
      "mC": 5568,
      "nE": 5569,
      "nm": 5570,
      "nn": 5571,
      "nagesh": 5572,
      "qa": 5573,
      "qy": 5574,
      "so": 5575,
      "uh": 5576,
      "vz": 5577,
      "¿½": 5578,
      "ï¿½": 5579,
      "ination": 5580,
      "ouch": 5581,
      "orge": 5582,
      "rop": 5583,
      "Ġsection": 5584,
      "Ġsalary": 5585,
      "ĠSp": 5586,
      "Ġfun": 5587,
      "ĠAnd": 5588,
      "ĠMulti": 5589,
      "ĠTest": 5590,
      "iginal": 5591,
      "Ġdevelopment": 5592,
      "---": 5593,
      "ĠRach": 5594,
      "ĠDef": 5595,
      "imation": 5596,
      "embl": 5597,
      "015": 5598,
      "ĠFollow": 5599,
      "ĠUPS": 5600,
      "ife": 5601,
      "Ġ48": 5602,
      "5834": 5603,
      "ĠThese": 5604,
      "ode": 5605,
      "Ġproper": 5606,
      "Ġgiv": 5607,
      "Ġask": 5608,
      "MDU": 5609,
      "Ġrepe": 5610,
      "290": 5611,
      "777": 5612,
      "1334": 5613,
      "Ġupcoming": 5614,
      "ĠIndustry": 5615,
      "ĠShinde": 5616,
      "ĠStorage": 5617,
      "AAAGZIk": 5618,
      "Ġcontacts": 5619,
      "NTH": 5620,
      "Ġlearning": 5621,
      "AFe": 5622,
      "ĠAIA": 5623,
      "686": 5624,
      "ĠSync": 5625,
      "Ġallow": 5626,
      "Ġincludes": 5627,
      "uvan": 5628,
      "Ġleading": 5629,
      "Ġscreen": 5630,
      "VRaTS": 5631,
      "awstr": 5632,
      "pyd": 5633,
      "Ġinvest": 5634,
      "Ġevolving": 5635,
      "Ġbuild": 5636,
      "ĠStrategy": 5637,
      "Ġattackers": 5638,
      "vmxwv": 5639,
      "Ġagainst": 5640,
      "surywanshi": 5641,
      "Ġdeploy": 5642,
      "CyberFrat": 5643,
      "TataT": 5644,
      "Ġdetection": 5645,
      "matrix": 5646,
      "Ġ67444037": 5647,
      "0195834": 5648,
      "Ġqueries": 5649,
      "ngthen": 5650,
      "ounce": 5651,
      "NjYAAAGZIk": 5652,
      "01000195834": 5653,
      "Ġappreciate": 5654,
      "Ġpossible": 5655,
      "Cheers": 5656,
      "FMTEyL": 5657,
      "irtual": 5658,
      "Nurture": 5659,
      "ĠRachelle": 5660,
      "awstrack": 5661,
      "vmxwvcrs": 5662,
      "NjYAAAGZIkUF": 5663,
      "FMTEyLVRaTS": 5664,
      "):": 5665,
      "Ay": 5666,
      "Are": 5667,
      "Bs": 5668,
      "Buil": 5669,
      "Cz": 5670,
      "EW": 5671,
      "Fx": 5672,
      "Free": 5673,
      "GP": 5674,
      "Gg": 5675,
      "Gt": 5676,
      "Gv": 5677,
      "Ig": 5678,
      "Jt": 5679,
      "Jy": 5680,
      "Ke": 5681,
      "Lt": 5682,
      "MY": 5683,
      "Message": 5684,
      "Nt": 5685,
      "PP": 5686,
      "RZ": 5687,
      "Rev": 5688,
      "Ravindranatha": 5689,
      "SY": 5690,
      "Smart": 5691,
      "TP": 5692,
      "Ux": 5693,
      "Uz": 5694,
      "UTC": 5695,
      "Yt": 5696,
      "ZQ": 5697,
      "aTw": 5698,
      "bank": 5699,
      "down": 5700,
      "driven": 5701,
      "eer": 5702,
      "hib": 5703,
      "iP": 5704,
      "jD": 5705,
      "jn": 5706,
      "kd": 5707,
      "lC": 5708,
      "nemetschek": 5709,
      "oy": 5710,
      "other": 5711,
      "ocn": 5712,
      "pZ": 5713,
      "ple": 5714,
      "public": 5715,
      "qj": 5716,
      "rg": 5717,
      "rBA": 5718,
      "sg": 5719,
      "tL": 5720,
      "vR": 5721,
      "yc": 5722,
      "Ġ21": 5723,
      "Ġov": 5724,
      "Ġ07": 5725,
      "čĊĠĠĠĠ": 5726,
      "ero": 5727,
      "ather": 5728,
      "ators": 5729,
      "register": 5730,
      "remains": 5731,
      "Ġtas": 5732,
      "Ġtru": 5733,
      "utes": 5734,
      "ution": 5735,
      "ĠSA": 5736,
      "ĠSOC": 5737,
      "ĠSameer": 5738,
      "ĠSonicWall": 5739,
      "ĠSembl": 5740,
      "Ġrecomm": 5741,
      "ĠPratik": 5742,
      "ĠAjay": 5743,
      "Ġdone": 5744,
      "ĠRansomware": 5745,
      "Ġiniti": 5746,
      "Ġmat": 5747,
      "ĠDetails": 5748,
      "Ġcert": 5749,
      "eph": 5750,
      "ĠGood": 5751,
      "ĠGreetings": 5752,
      "oll": 5753,
      "oom": 5754,
      "store": 5755,
      "ĠWeek": 5756,
      "check": 5757,
      "artic": 5758,
      "ership": 5759,
      "about": 5760,
      "ifect": 5761,
      "Ġonline": 5762,
      "ĠReceived": 5763,
      "413": 5764,
      "98609": 5765,
      "erves": 5766,
      "1009648": 5767,
      "1009660": 5768,
      "1009634": 5769,
      "ĠOpt": 5770,
      "share": 5771,
      "aptop": 5772,
      "566": 5773,
      "383": 5774,
      "Ġproble": 5775,
      "Ġproactive": 5776,
      "695": 5777,
      "1800": 5778,
      "irewall": 5779,
      "457": 5780,
      "afe": 5781,
      "Ġstatus": 5782,
      "LUy": 5783,
      "Ġadding": 5784,
      "ĠProtection": 5785,
      "Instagram": 5786,
      "NDaTw": 5787,
      "Ġcomprehensive": 5788,
      "ĠConnect": 5789,
      "Ġresolve": 5790,
      "egion": 5791,
      "Ġque": 5792,
      "INAR": 5793,
      "voIV": 5794,
      "ĠWhy": 5795,
      "Ġ#:": 5796,
      "ITY": 5797,
      "EBINAR": 5798,
      "ĠAutomation": 5799,
      "Ġtechnical": 5800,
      "10096677": 5801,
      "world": 5802,
      "xmNDaTw": 5803,
      "gXxg": 5804,
      "iction": 5805,
      "100963898609": 5806,
      "SsgXxg": 5807,
      "uTxmNDaTw": 5808,
      "090224": 5809,
      "ĠAddress": 5810,
      "Ġcontains": 5811,
      "ĠSurywanshi": 5812,
      "Ġcontrol": 5813,
      "Ġdevice": 5814,
      "Ġimplementation": 5815,
      "ĠHarddisk": 5816,
      "ĠCreate": 5817,
      "Ġworkflows": 5818,
      "MDAwMDAw": 5819,
      "lgyY": 5820,
      "Ġaffili": 5821,
      "LXJSsgXxg": 5822,
      "Pvaj": 5823,
      "cVJvoIV": 5824,
      "ĠSemblat": 5825,
      "1009634090224": 5826,
      "1009638986097": 5827,
      "uTxmNDaTwb": 5828,
      "cVJvoIVuTxmNDaTwb": 5829,
      "132": 5830,
      "200": 5831,
      "325": 5832,
      "430": 5833,
      "404": 5834,
      "455": 5835,
      "591": 5836,
      "632": 5837,
      "698": 5838,
      "Att": 5839,
      "Barclays": 5840,
      "Dm": 5841,
      "Dv": 5842,
      "DAD": 5843,
      "GE": 5844,
      "Hj": 5845,
      "Iq": 5846,
      "Imp": 5847,
      "IST": 5848,
      "JH": 5849,
      "Jf": 5850,
      "Jx": 5851,
      "Kw": 5852,
      "LH": 5853,
      "MQ": 5854,
      "MZ": 5855,
      "Mf": 5856,
      "Mh": 5857,
      "MAE": 5858,
      "Master": 5859,
      "Nv": 5860,
      "NAP": 5861,
      "Nffb": 5862,
      "Oz": 5863,
      "Pg": 5864,
      "Product": 5865,
      "Raveena": 5866,
      "Sb": 5867,
      "Sp": 5868,
      "SAP": 5869,
      "Tx": 5870,
      "Vat": 5871,
      "WP": 5872,
      "XM": 5873,
      "Xt": 5874,
      "ZK": 5875,
      "aBj": 5876,
      "dB": 5877,
      "eQ": 5878,
      "eo": 5879,
      "gj": 5880,
      "gp": 5881,
      "ior": 5882,
      "light": 5883,
      "mNTH": 5884,
      "ness": 5885,
      "ocus": 5886,
      "pG": 5887,
      "pf": 5888,
      "rJ": 5889,
      "rX": 5890,
      "tX": 5891,
      "tnc": 5892,
      "vast": 5893,
      "vals": 5894,
      "yq": 5895,
      "yOT": 5896,
      "ze": 5897,
      "zw": 5898,
      "Ġ800": 5899,
      "Ġarchitect": 5900,
      "ina": 5901,
      "ercon": 5902,
      "atik": 5903,
      "orning": 5904,
      "itium": 5905,
      "007": 5906,
      "entation": 5907,
      "acE": 5908,
      "Ġways": 5909,
      "amline": 5910,
      "ĠAre": 5911,
      "ĠArc": 5912,
      "ĠAccenture": 5913,
      "ĠMarn": 5914,
      "Ġpeople": 5915,
      "ĠId": 5916,
      "ivision": 5917,
      "Ġmal": 5918,
      "Ġmonth": 5919,
      "ĠDescription": 5920,
      "url": 5921,
      "Ġhost": 5922,
      "ĠNabil": 5923,
      "storcom": 5924,
      "Ġ120": 5925,
      "990": 5926,
      "993": 5927,
      "Ġisn": 5928,
      "edirect": 5929,
      "ĠUHD": 5930,
      "ĠWarning": 5931,
      "Âłč": 5932,
      "ĠLenovo": 5933,
      "ures": 5934,
      "583": 5935,
      "ĠHD": 5936,
      "Ġnames": 5937,
      "Ġ35": 5938,
      "4316": 5939,
      "otential": 5940,
      "162": 5941,
      "4456": 5942,
      "akes": 5943,
      "513": 5944,
      "2747": 5945,
      "2757": 5946,
      "Ġreceipt": 5947,
      "Ġvari": 5948,
      "pratik": 5949,
      "180": 5950,
      "292": 5951,
      "29001": 5952,
      "csdem": 5953,
      "aint": 5954,
      "Ġcode": 5955,
      "675": 5956,
      "Ġtracking": 5957,
      "erience": 5958,
      "Inc": 5959,
      "ĠShow": 5960,
      "54031": 5961,
      "iber": 5962,
      "Ġlevel": 5963,
      "rowd": 5964,
      "heAR": 5965,
      "Ġchallenges": 5966,
      "loads": 5967,
      "Ġsetting": 5968,
      "Ġadvert": 5969,
      "feature": 5970,
      "raw": 5971,
      "ensation": 5972,
      "chedule": 5973,
      "ĠPreferences": 5974,
      "YAI": 5975,
      "EBD": 5976,
      "EBOOK": 5977,
      "ĠAssociate": 5978,
      "Ġscal": 5979,
      "Ġspecifications": 5980,
      "newercon": 5981,
      "Ġtransactions": 5982,
      "channel": 5983,
      "KSi": 5984,
      "ðŁĵ": 5985,
      "Ġbuilt": 5986,
      "biU": 5987,
      "Ġmulti": 5988,
      "Ġhappens": 5989,
      "ĠStrategies": 5990,
      "Ġdefense": 5991,
      "Ġattacks": 5992,
      "olden": 5993,
      "Ġinstead": 5994,
      "Ġprevention": 5995,
      "nknewercon": 5996,
      "Ġopening": 5997,
      "ĠOutlook": 5998,
      "Ġtimel": 5999,
      "Ġpromot": 6000,
      "lrnknewercon": 6001,
      "Ġarrange": 6002,
      "NFTkNSWVBUSVbiU": 6003,
      "cerns": 6004,
      "Ġsmooth": 6005,
      "incipal": 6006,
      "Ġactivities": 6007,
      "Ġdiffer": 6008,
      "Ġtailored": 6009,
      "MAEJk": 6010,
      "NffbheAR": 6011,
      "VatNffbheAR": 6012,
      "mNTHuQ": 6013,
      "yOTAAAA": 6014,
      "ĠMarne": 6015,
      "csdemlrnknewercon": 6016,
      "VatNffbheARmNTHuQ": 6017,
      "++": 6018,
      "145": 6019,
      "441": 6020,
      "548": 6021,
      "802": 6022,
      "BP": 6023,
      "Bb": 6024,
      "Df": 6025,
      "Di": 6026,
      "Employee": 6027,
      "FV": 6028,
      "HK": 6029,
      "IW": 6030,
      "JP": 6031,
      "Ls": 6032,
      "Nd": 6033,
      "Nu": 6034,
      "Og": 6035,
      "Oh": 6036,
      "Ql": 6037,
      "SQ": 6038,
      "SX": 6039,
      "SAFe": 6040,
      "Tt": 6041,
      "TLO": 6042,
      "Trans": 6043,
      "VK": 6044,
      "Vi": 6045,
      "XK": 6046,
      "Yl": 6047,
      "Yu": 6048,
      "aG": 6049,
      "aT": 6050,
      "bbc": 6051,
      "cQ": 6052,
      "cq": 6053,
      "cat": 6054,
      "fv": 6055,
      "from": 6056,
      "hb": 6057,
      "has": 6058,
      "home": 6059,
      "ield": 6060,
      "jH": 6061,
      "jd": 6062,
      "kf": 6063,
      "lP": 6064,
      "lci": 6065,
      "manag": 6066,
      "nR": 6067,
      "nxb": 6068,
      "pF": 6069,
      "pLUy": 6070,
      "qC": 6071,
      "rk": 6072,
      "rw": 6073,
      "sy": 6074,
      "slet": 6075,
      "tP": 6076,
      "vn": 6077,
      "vw": 6078,
      "var": 6079,
      "wM": 6080,
      "wU": 6081,
      "wc": 6082,
      "zC": 6083,
      "zF": 6084,
      "ins": 6085,
      "erral": 6086,
      "cogn": 6087,
      "atic": 6088,
      "reya": 6089,
      "come": 6090,
      "ourya": 6091,
      "alia": 6092,
      "Ġachal": 6093,
      "Ġaccur": 6094,
      "ĠSpr": 6095,
      "Ġreli": 6096,
      "Ġremain": 6097,
      "Ġway": 6098,
      "Ġwarning": 6099,
      "Ġtotal": 6100,
      "ĠAmazon": 6101,
      "ĠMaster": 6102,
      "ĠMckinsey": 6103,
      "connect": 6104,
      "adam": 6105,
      "Ġdaily": 6106,
      "ĠIss": 6107,
      "ĠCase": 6108,
      "ĠDigital": 6109,
      "114": 6110,
      "Ġcalendar": 6111,
      "urgent": 6112,
      "umant": 6113,
      "991": 6114,
      "9918": 6115,
      "Ġline": 6116,
      "ĠBI": 6117,
      "8878": 6118,
      "1009658": 6119,
      "Ġ325": 6120,
      "ackup": 6121,
      "560": 6122,
      "487": 6123,
      "407": 6124,
      "237": 6125,
      "ccf": 6126,
      "Ġanyone": 6127,
      "ybrid": 6128,
      "Ġexc": 6129,
      "Ġext": 6130,
      "Ġrate": 6131,
      "MDYx": 6132,
      "181": 6133,
      "772": 6134,
      "csdt": 6135,
      "ashboard": 6136,
      "602": 6137,
      "udget": 6138,
      "ĠJanu": 6139,
      "Ġcoun": 6140,
      "Ġcoll": 6141,
      "Ġanalysis": 6142,
      "LUpLUy": 6143,
      "Ġunless": 6144,
      "Ġmeas": 6145,
      "Ġcannot": 6146,
      "Ġexpect": 6147,
      "Ġcomplex": 6148,
      "deutsche": 6149,
      "ĠExpert": 6150,
      "Ġresult": 6151,
      "Ġchat": 6152,
      "bricks": 6153,
      "ĠOnce": 6154,
      "Ġspeed": 6155,
      "Ġ754": 6156,
      "Ġ78878": 6157,
      "Ġadvance": 6158,
      "Communication": 6159,
      "3150": 6160,
      "EloquaImag": 6161,
      "ichelle": 6162,
      "ĠGroup": 6163,
      "One": 6164,
      "OUTLO": 6165,
      "MjIAAAG": 6166,
      "64809": 6167,
      "ahulm": 6168,
      "Ġcomment": 6169,
      "Analysis": 6170,
      "ĠCorel": 6171,
      "PROD": 6172,
      "Ġresponding": 6173,
      "Ġpractices": 6174,
      "fessional": 6175,
      "Ġclarity": 6176,
      "nbsp": 6177,
      "čĊĠĠĠčĊč": 6178,
      "Ġpriorit": 6179,
      "biometric": 6180,
      "ĠStrategic": 6181,
      "rendvar": 6182,
      "ĠAditi": 6183,
      "ĠQual": 6184,
      "ĠImportant": 6185,
      "Ġinstall": 6186,
      "Ġhardware": 6187,
      "Ġpatching": 6188,
      "optout": 6189,
      "Deutsche": 6190,
      "YqYAI": 6191,
      "Ġtrending": 6192,
      "Ġcapabilities": 6193,
      "----------------------------------------------------------------------": 6194,
      "ThinkPad": 6195,
      "čĊčĊčĊčĊčĊÂłčĊčĊčĊčĊčĊÂł": 6196,
      "ĠCredit": 6197,
      "eleservicesLimited": 6198,
      "enefits": 6199,
      "clients": 6200,
      "Ġindependently": 6201,
      "eagate": 6202,
      "TataTeleservicesLimited": 6203,
      "matrixbricks": 6204,
      "Ġaffiliates": 6205,
      "NAPP": 6206,
      "Ġmalicious": 6207,
      "Ġdifferent": 6208,
      "nxbYqYAI": 6209,
      "sletter": 6210,
      "MDYxLUpLUy": 6211,
      "csdtrendvar": 6212,
      "ĠJanuary": 6213,
      "Ġ7887864809": 6214,
      "EloquaImages": 6215,
      "OUTLOOK": 6216,
      "/:": 6217,
      "078": 6218,
      "276": 6219,
      "411": 6220,
      "401": 6221,
      "799": 6222,
      "794": 6223,
      "753": 6224,
      "Am": 6225,
      "App": 6226,
      "BV": 6227,
      "Cross": 6228,
      "Ec": 6229,
      "Event": 6230,
      "FK": 6231,
      "HX": 6232,
      "He": 6233,
      "Iv": 6234,
      "Je": 6235,
      "JKt": 6236,
      "Lm": 6237,
      "Mg": 6238,
      "MMT": 6239,
      "PQ": 6240,
      "PTC": 6241,
      "Qg": 6242,
      "Qr": 6243,
      "Sm": 6244,
      "Tenant": 6245,
      "UX": 6246,
      "Ue": 6247,
      "Vo": 6248,
      "Wb": 6249,
      "ZO": 6250,
      "aJ": 6251,
      "cV": 6252,
      "crowd": 6253,
      "fk": 6254,
      "flu": 6255,
      "hG": 6256,
      "hl": 6257,
      "iI": 6258,
      "iU": 6259,
      "lim": 6260,
      "limited": 6261,
      "pj": 6262,
      "personal": 6263,
      "qY": 6264,
      "qZ": 6265,
      "uj": 6266,
      "xZ": 6267,
      "yy": 6268,
      "zy": 6269,
      "ĉčĊč": 6270,
      "Ġ$": 6271,
      "Ġ36": 6272,
      "Ġzoho": 6273,
      "infrastructure": 6274,
      "ancy": 6275,
      "ouble": 6276,
      "Ġsessions": 6277,
      "Ġsince": 6278,
      "ĠSan": 6279,
      "Ġfound": 6280,
      "Ġfirst": 6281,
      "Ġfacing": 6282,
      "Ġfocus": 6283,
      "Ġref": 6284,
      "ĠProduction": 6285,
      "ĠPCs": 6286,
      "eter": 6287,
      "ĠAg": 6288,
      "ĠMount": 6289,
      "ĠMouse": 6290,
      "ĠMachine": 6291,
      "Ġph": 6292,
      "idence": 6293,
      "ĠRights": 6294,
      "ĠRelo": 6295,
      "Ġeas": 6296,
      "ĠGB": 6297,
      "urn": 6298,
      "ĠFri": 6299,
      "uling": 6300,
      "stru": 6301,
      "atema": 6302,
      "opal": 6303,
      "ĠBrowser": 6304,
      "ĠInst": 6305,
      "ĠLive": 6306,
      "885": 6307,
      "That": 6308,
      "5832": 6309,
      "419": 6310,
      "1009617": 6311,
      "1009667": 6312,
      "achel": 6313,
      "1623": 6314,
      "Ġprotect": 6315,
      "Ġguide": 6316,
      "2310": 6317,
      "books": 6318,
      "elivered": 6319,
      "DCC": 6320,
      "IEC": 6321,
      "Ġshort": 6322,
      "hanced": 6323,
      "Ġunified": 6324,
      "going": 6325,
      "bde": 6326,
      "communiction": 6327,
      "ĠExpo": 6328,
      "Ġreserves": 6329,
      "931": 6330,
      "Ġspam": 6331,
      "Ġplay": 6332,
      "Ġimmediate": 6333,
      "797": 6334,
      "Ġregister": 6335,
      "Ġoccur": 6336,
      "rhcommuniction": 6337,
      "ttns": 6338,
      "ifier": 6339,
      "raud": 6340,
      "ĠSujata": 6341,
      "itservices": 6342,
      "SSP": 6343,
      "ĠCorporate": 6344,
      "Ġindic": 6345,
      "ĠRespected": 6346,
      "Ġefficiency": 6347,
      "Ġtransform": 6348,
      "ĠContro": 6349,
      "Additionally": 6350,
      "Ġbuilding": 6351,
      "Ġprovided": 6352,
      "1009638374": 6353,
      "1009634316": 6354,
      "Ġvalu": 6355,
      "FydG": 6356,
      "Noted": 6357,
      "10096544": 6358,
      "10096451280": 6359,
      "namics": 6360,
      "Ġsuccessfully": 6361,
      "Ġ42001": 6362,
      "Ġmaintenance": 6363,
      "Ġrenewal": 6364,
      "Ġgaps": 6365,
      "ĠLinkedIn": 6366,
      "Ġattempts": 6367,
      "Ġmarked": 6368,
      "Ġendpoints": 6369,
      "Ġtrusted": 6370,
      "Ġtriggered": 6371,
      "4766": 6372,
      "ĠStudio": 6373,
      "protectss": 6374,
      "Ġbasis": 6375,
      "Ġrepeated": 6376,
      "Review": 6377,
      "sharepoint": 6378,
      "vastitservices": 6379,
      "Ġ80079": 6380,
      "Ġadvertis": 6381,
      "Ġ32576": 6382,
      "CrossTenant": 6383,
      "ĠRelocation": 6384,
      "1009638374275": 6385,
      "1009634316490": 6386,
      "1009645128096": 6387,
      "191": 6388,
      "1999": 6389,
      "399": 6390,
      "317": 6391,
      "651": 6392,
      "944": 6393,
      "Af": 6394,
      "ABB": 6395,
      "BY": 6396,
      "Bo": 6397,
      "Bv": 6398,
      "CY": 6399,
      "DK": 6400,
      "Ep": 6401,
      "FM": 6402,
      "Feat": 6403,
      "GY": 6404,
      "Hm": 6405,
      "IU": 6406,
      "IBE": 6407,
      "Ji": 6408,
      "KX": 6409,
      "Kh": 6410,
      "Lw": 6411,
      "Learn": 6412,
      "Mb": 6413,
      "Mob": 6414,
      "Network": 6415,
      "OP": 6416,
      "PX": 6417,
      "QZ": 6418,
      "Qp": 6419,
      "RK": 6420,
      "Risk": 6421,
      "Software": 6422,
      "Tab": 6423,
      "Type": 6424,
      "UST": 6425,
      "UBS": 6426,
      "Wk": 6427,
      "WEBINAR": 6428,
      "aD": 6429,
      "aP": 6430,
      "dg": 6431,
      "drop": 6432,
      "fp": 6433,
      "fact": 6434,
      "iG": 6435,
      "iT": 6436,
      "jV": 6437,
      "kX": 6438,
      "lL": 6439,
      "lc": 6440,
      "mark": 6441,
      "nD": 6442,
      "niqu": 6443,
      "qD": 6444,
      "some": 6445,
      "svc": 6446,
      "uY": 6447,
      "ujh": 6448,
      "xpb": 6449,
      "yl": 6450,
      "Â®": 6451,
      "Ġed": 6452,
      "Ġes": 6453,
      "Ġ32": 6454,
      "Ġ28": 6455,
      "ĠčĊčĊčĊčĊčĊčĊčĊčĊ": 6456,
      "code": 6457,
      "ani": 6458,
      "ories": 6459,
      "itable": 6460,
      "Ġthread": 6461,
      "Ġadmin": 6462,
      "ĠSOU": 6463,
      "Ġfraud": 6464,
      "els": 6465,
      "etworks": 6466,
      "Ġwere": 6467,
      "čĊčĊčĊÂł": 6468,
      "ĠAvoid": 6469,
      "Ġperson": 6470,
      "Ġpotential": 6471,
      "-->": 6472,
      "ĠRad": 6473,
      "ĠRAM": 6474,
      "ivit": 6475,
      "ector": 6476,
      "Ġever": 6477,
      "endre": 6478,
      "oss": 6479,
      "Ġheld": 6480,
      "emin": 6481,
      "ulk": 6482,
      "249": 6483,
      "tools": 6484,
      "ĠEmployee": 6485,
      "chinmay": 6486,
      "arts": 6487,
      "abled": 6488,
      "ĠIntegration": 6489,
      "grad": 6490,
      "ternal": 6491,
      "8896": 6492,
      "367": 6493,
      "503": 6494,
      "rief": 6495,
      "589": 6496,
      "ĠHealth": 6497,
      "ĠThreat": 6498,
      "shop": 6499,
      "oftTech": 6500,
      "apj": 6501,
      "ecuring": 6502,
      "oti": 6503,
      "23017": 6504,
      "514": 6505,
      "ĠKey": 6506,
      "ĠKumar": 6507,
      "Ġusage": 6508,
      "780": 6509,
      "Ġransomware": 6510,
      "Ġstation": 6511,
      "ĠYOU": 6512,
      "ĠYakatpure": 6513,
      "Ġshift": 6514,
      "uecore": 6515,
      "ishek": 6516,
      "Read": 6517,
      "Ġcompet": 6518,
      "Ġcompanies": 6519,
      "Ġapplic": 6520,
      "ĠReply": 6521,
      "ĠConf": 6522,
      "verdue": 6523,
      "mera": 6524,
      "egoti": 6525,
      "Ġplace": 6526,
      "842": 6527,
      "Ġ64": 6528,
      "202573": 6529,
      "Referral": 6530,
      "Ġimportant": 6531,
      "ĠXGS": 6532,
      "Ġintervals": 6533,
      "Ġremote": 6534,
      "ĠSupp": 6535,
      "iOiJ": 6536,
      "ĠServiceDesk": 6537,
      "bluecore": 6538,
      "CEF": 6539,
      "000001957": 6540,
      "Technologies": 6541,
      "ĠReserved": 6542,
      "Ġoffering": 6543,
      "Ġefforts": 6544,
      "hubfs": 6545,
      "173841": 6546,
      "VEM": 6547,
      "ĠCertified": 6548,
      "Ġgraphics": 6549,
      "Ġdecision": 6550,
      "ĠSantosh": 6551,
      "Ġproviding": 6552,
      "Ġidentifier": 6553,
      "Ġreturned": 6554,
      "ĠBuilders": 6555,
      "Ġundelivered": 6556,
      "Ġcontrols": 6557,
      "CRIBE": 6558,
      "ĠÂłĠÂłĠÂłĠÂłĠÂłĠÂłĠÂłĠÂł": 6559,
      "40620": 6560,
      "ÂłÂłÂłÂłÂłÂłÂłÂłÂłÂłÂłÂłÂłÂłÂłÂł": 6561,
      "Ġalerts": 6562,
      "Caution": 6563,
      "Ġcoordinate": 6564,
      "Ġgrowth": 6565,
      "generator": 6566,
      "Ġpowerful": 6567,
      "ĠPractical": 6568,
      "English": 6569,
      "Ġinnovation": 6570,
      "ĠInfos": 6571,
      "ĠEventually": 6572,
      "ĠInfoSecurity": 6573,
      "Ġconversation": 6574,
      "Ġqueue": 6575,
      "Ġindicators": 6576,
      "Ġadvertisement": 6577,
      "Featured": 6578,
      "niques": 6579,
      "ĠSOURCE": 6580,
      "417": 6581,
      "599": 6582,
      "711": 6583,
      "848": 6584,
      "927": 6585,
      "947": 6586,
      ":*": 6587,
      "Ak": 6588,
      "Bm": 6589,
      "Bq": 6590,
      "Bu": 6591,
      "Bw": 6592,
      "Bz": 6593,
      "BDD": 6594,
      "CK": 6595,
      "Cw": 6596,
      "Cybersecurity": 6597,
      "Dep": 6598,
      "EP": 6599,
      "Em": 6600,
      "FJ": 6601,
      "FN": 6602,
      "FX": 6603,
      "Fn": 6604,
      "FFE": 6605,
      "Gj": 6606,
      "HH": 6607,
      "IY": 6608,
      "Int": 6609,
      "JM": 6610,
      "Jn": 6611,
      "LI": 6612,
      "Madhutrishna": 6613,
      "NZ": 6614,
      "New": 6615,
      "Oa": 6616,
      "Ok": 6617,
      "RA": 6618,
      "SV": 6619,
      "Sg": 6620,
      "See": 6621,
      "UG": 6622,
      "Vf": 6623,
      "Xk": 6624,
      "Xx": 6625,
      "Yb": 6626,
      "Yatra": 6627,
      "Zq": 6628,
      "aY": 6629,
      "aee": 6630,
      "aunch": 6631,
      "cO": 6632,
      "dr": 6633,
      "def": 6634,
      "fcf": 6635,
      "gif": 6636,
      "hH": 6637,
      "hQ": 6638,
      "hPM": 6639,
      "iLC": 6640,
      "key": 6641,
      "lT": 6642,
      "lan": 6643,
      "mc": 6644,
      "mh": 6645,
      "nG": 6646,
      "oW": 6647,
      "opportunities": 6648,
      "pT": 6649,
      "pU": 6650,
      "qx": 6651,
      "rt": 6652,
      "ras": 6653,
      "services": 6654,
      "vZW": 6655,
      "wT": 6656,
      "wf": 6657,
      "ye": 6658,
      "yo": 6659,
      "zp": 6660,
      "Ġ94": 6661,
      "Ġ-->": 6662,
      "referral": 6663,
      "engr": 6664,
      "enew": 6665,
      "Ġtri": 6666,
      "onus": 6667,
      "arg": 6668,
      "ĠĠčĊč": 6669,
      "itte": 6670,
      "ecks": 6671,
      "ingle": 6672,
      "mak": 6673,
      "Ġslow": 6674,
      "ĠSign": 6675,
      "ĠSEC": 6676,
      "ĠPar": 6677,
      "ĠPatch": 6678,
      "etr": 6679,
      "Ġwa": 6680,
      "Ġwalk": 6681,
      "ampl": 6682,
      "ĠMA": 6683,
      "ĠMist": 6684,
      "ĠTO": 6685,
      "ĠType": 6686,
      "ĠTouch": 6687,
      "agolden": 6688,
      "ĠRel": 6689,
      "ĠRound": 6690,
      "ĠCalendar": 6691,
      "ĠCashback": 6692,
      "lead": 6693,
      "ĠDevelop": 6694,
      "Ġemployee": 6695,
      "Ġhike": 6696,
      "ĠNorth": 6697,
      "cae": 6698,
      "ists": 6699,
      "ulent": 6700,
      "2471": 6701,
      "ĠEng": 6702,
      "ĠWord": 6703,
      "arty": 6704,
      "ables": 6705,
      "042": 6706,
      "048": 6707,
      "ĠInsp": 6708,
      "ird": 6709,
      "Ġ2024": 6710,
      "ĠReferral": 6711,
      "362": 6712,
      "502": 6713,
      "765": 6714,
      "uper": 6715,
      "ĠĠĠĠĠĠĠĠĠĠĠ": 6716,
      "586": 6717,
      "414": 6718,
      "9804": 6719,
      "1009611": 6720,
      "aching": 6721,
      "Ġ39": 6722,
      "433": 6723,
      "ackers": 6724,
      "Ġ**": 6725,
      "dde": 6726,
      "harshad": 6727,
      "1618": 6728,
      "4829": 6729,
      "40777": 6730,
      "bea": 6731,
      "468": 6732,
      "Ġran": 6733,
      "953": 6734,
      "Ġcopy": 6735,
      "Ġstandard": 6736,
      "ĠProv": 6737,
      "ĠShah": 6738,
      "arni": 6739,
      "ounder": 6740,
      "ĠĠĠčĊĠĠ": 6741,
      "ĠAnn": 6742,
      "=>.": 6743,
      "Ġmanaging": 6744,
      "CIN": 6745,
      "5349": 6746,
      "Ġworkstation": 6747,
      "CChPM": 6748,
      "NSUBS": 6749,
      "website": 6750,
      "OWN": 6751,
      "hsagolden": 6752,
      "ĠArvind": 6753,
      "Ġeffect": 6754,
      "Ġeffective": 6755,
      "754013": 6756,
      "ificate": 6757,
      "Ġjoining": 6758,
      "ĠHRMS": 6759,
      "khilesh": 6760,
      "Ġdefenses": 6761,
      "Ġidentity": 6762,
      "ĠImplement": 6763,
      "Ġleadership": 6764,
      "Ġsignals": 6765,
      "allenger": 6766,
      "Click": 6767,
      "Ġhandling": 6768,
      "Challenger": 6769,
      "chiev": 6770,
      "Ġprompt": 6771,
      "ĠClickUp": 6772,
      "eloitte": 6773,
      "ique": 6774,
      "MDQAAAGZCChPM": 6775,
      "ĠLicense": 6776,
      "68832": 6777,
      "ĠUpgrade": 6778,
      "Ġclassified": 6779,
      "Ġbrand": 6780,
      "Ġoverview": 6781,
      "ccfbde": 6782,
      "achelor": 6783,
      "Ġfraudulent": 6784,
      "ulkarni": 6785,
      "Ġapplicable": 6786,
      "amples": 6787,
      "NSUBSCRIBE": 6788,
      "754013442": 6789,
      ".*": 6790,
      "229": 6791,
      "426": 6792,
      "727": 6793,
      "824": 6794,
      "843": 6795,
      "837": 6796,
      "9100": 6797,
      "971": 6798,
      "AH": 6799,
      "Aj": 6800,
      "Bvikas": 6801,
      "CDC": 6802,
      "DOWN": 6803,
      "EL": 6804,
      "Ek": 6805,
      "FP": 6806,
      "Gc": 6807,
      "Hn": 6808,
      "ISO": 6809,
      "ML": 6810,
      "McKinsey": 6811,
      "OTE": 6812,
      "PL": 6813,
      "Plot": 6814,
      "Qf": 6815,
      "RN": 6816,
      "Rj": 6817,
      "Ro": 6818,
      "Rz": 6819,
      "Ring": 6820,
      "Stat": 6821,
      "TLS": 6822,
      "VY": 6823,
      "Van": 6824,
      "VWV": 6825,
      "WD": 6826,
      "aayushi": 6827,
      "bU": 6828,
      "bZ": 6829,
      "bad": 6830,
      "bff": 6831,
      "barclays": 6832,
      "cD": 6833,
      "cv": 6834,
      "can": 6835,
      "dR": 6836,
      "dab": 6837,
      "dated": 6838,
      "dalvi": 6839,
      "fU": 6840,
      "fall": 6841,
      "gb": 6842,
      "gix": 6843,
      "hZ": 6844,
      "iS": 6845,
      "jK": 6846,
      "jU": 6847,
      "join": 6848,
      "kt": 6849,
      "lB": 6850,
      "pass": 6851,
      "qd": 6852,
      "sameer": 6853,
      "tD": 6854,
      "wC": 6855,
      "wk": 6856,
      "wp": 6857,
      "xT": 6858,
      "yt": 6859,
      "Ġ22": 6860,
      "Ġurgent": 6861,
      "inc": 6862,
      "inan": 6863,
      "inny": 6864,
      "edd": 6865,
      "ily": 6866,
      "ileg": 6867,
      "arma": 6868,
      "alf": 6869,
      "0008": 6870,
      "Ġsens": 6871,
      "Ġsingle": 6872,
      "andey": 6873,
      "ĠSP": 6874,
      "ĠSagar": 6875,
      "ĠSaaS": 6876,
      "209918": 6877,
      "Ġrelease": 6878,
      "ĠPost": 6879,
      "ĠPeer": 6880,
      "icient": 6881,
      "amer": 6882,
      "idd": 6883,
      "ĠIND": 6884,
      "ĠRenew": 6885,
      "Ġinclusive": 6886,
      "ĠCity": 6887,
      "ĠCap": 6888,
      "ĠĠĠĠĠčĊč": 6889,
      "ivani": 6890,
      "ĠDM": 6891,
      "Ġcut": 6892,
      "Ġcable": 6893,
      "ĠGNR": 6894,
      "cape": 6895,
      "ĠFixed": 6896,
      "avig": 6897,
      "tops": 6898,
      "99704": 6899,
      "302": 6900,
      "ĠBig": 6901,
      "ĠBase": 6902,
      "ĠBurde": 6903,
      "iry": 6904,
      "ĠRegister": 6905,
      "posed": 6906,
      "36304": 6907,
      "505": 6908,
      "7074": 6909,
      "ĠHar": 6910,
      "ĠHDD": 6911,
      "ĠHarshad": 6912,
      "41413": 6913,
      "čĊčĊčĊčĊĠ": 6914,
      "100961": 6915,
      "1009656": 6916,
      "1009627": 6917,
      "10096199": 6918,
      "10096247": 6919,
      "10096408": 6920,
      "100962471": 6921,
      "16203": 6922,
      "ĠVideo": 6923,
      "2739": 6924,
      "46608": 6925,
      "cbd": 6926,
      "064": 6927,
      "2924": 6928,
      "134": 6929,
      "95171": 6930,
      "ĠJune": 6931,
      "475349": 6932,
      "Ġcount": 6933,
      "ĠYes": 6934,
      "Ġtrouble": 6935,
      "ickPlot": 6936,
      "earch": 6937,
      "bfb": 6938,
      "Ġunable": 6939,
      "ĠProposal": 6940,
      "Ġ:-": 6941,
      "Ġexpected": 6942,
      "Ġcompensation": 6943,
      "888584": 6944,
      "encing": 6945,
      "742": 6946,
      "3456": 6947,
      "Ġrequester": 6948,
      "heer": 6949,
      "Ġprivileg": 6950,
      "Ġquot": 6951,
      "CIsIm": 6952,
      "Ġaddresses": 6953,
      "Ġ778": 6954,
      "ipment": 6955,
      "ING": 6956,
      "Ġneeded": 6957,
      "Ġjagtap": 6958,
      "Ġactually": 6959,
      "hosecure": 6960,
      "Logix": 6961,
      "meeting": 6962,
      "ĠWhile": 6963,
      "LOAD": 6964,
      "EEBA": 6965,
      "Ġhelping": 6966,
      "ĠDiscover": 6967,
      "wanjari": 6968,
      "ITIL": 6969,
      "Ġinclude": 6970,
      "Ġconnectivity": 6971,
      "17403": 6972,
      "000001950": 6973,
      "Technology": 6974,
      "lso": 6975,
      "Ġroles": 6976,
      "ĠResilience": 6977,
      "Ġoptions": 6978,
      "ĠĠĠĠĠĠĠĠĠĠĠĠĠĠĠĠĠĠĠĠĠĠĠĠĠĠĠĠĠĠĠĠĠĠĠĠĠĠĠĠ": 6979,
      "ptional": 6980,
      "Ġposted": 6981,
      "čĊÂłč": 6982,
      "zohosecure": 6983,
      "standing": 6984,
      "AAAAAA": 6985,
      "ĠConsultancy": 6986,
      "Ġgrant": 6987,
      "017963": 6988,
      "celer": 6989,
      "Ġbreach": 6990,
      "18541413": 6991,
      "10096387074": 6992,
      "Ġeverything": 6993,
      "ĉĉĉĉĉĉĉĉ": 6994,
      "Ġclients": 6995,
      "Accounts": 6996,
      "ZtJKt": 6997,
      "Ġlocated": 6998,
      "9565": 6999,
      "Ġlicense": 7000,
      "ĠCreation": 7001,
      "16051": 7002,
      "Ġminutes": 7003,
      "MTUAAAGZtJKt": 7004,
      "ACCC": 7005,
      "32122": 7006,
      "ootage": 7007,
      "Ġtaken": 7008,
      "ĠNovember": 7009,
      "ybZvTbWNfLtbMsB": 7010,
      "8564766": 7011,
      "1009619475349": 7012,
      "Ġannounce": 7013,
      "XHUwMDNkIiwicF": 7014,
      "Ġevaluating": 7015,
      "Ġworld": 7016,
      "ĠCharu": 7017,
      "10096352739": 7018,
      "Ġstrictly": 7019,
      "Ġ70209918": 7020,
      "Ġgiven": 7021,
      "checkout": 7022,
      "etrics": 7023,
      "ĠInspiron": 7024,
      "DOWNLOAD": 7025,
      "RingCentral": 7026,
      "inancial": 7027,
      "Ġsensitive": 7028,
      "ĠINDIA": 7029,
      "99704632": 7030,
      "363040008": 7031,
      "1009656888584": 7032,
      "1009619946608": 7033,
      "1009624716051": 7034,
      "1009640895171": 7035,
      "1009624712924": 7036,
      "16203017963": 7037,
      "zohosecurepay": 7038,
      "1009638707403": 7039,
      "1009635273926": 7040,
      "Ġ7020991836": 7041,
      "1620301796378": 7042,
      "320": 7043,
      "348": 7044,
      "649": 7045,
      "725": 7046,
      "733": 7047,
      "896": 7048,
      "851": 7049,
      "972": 7050,
      "BEE": 7051,
      "Cf": 7052,
      "Cg": 7053,
      "Copyright": 7054,
      "DG": 7055,
      "Division": 7056,
      "Ea": 7057,
      "Esd": 7058,
      "FZ": 7059,
      "Ff": 7060,
      "Fu": 7061,
      "Fdp": 7062,
      "Gn": 7063,
      "Gp": 7064,
      "Gx": 7065,
      "Hp": 7066,
      "Have": 7067,
      "Jo": 7068,
      "Jr": 7069,
      "Jv": 7070,
      "Just": 7071,
      "Ki": 7072,
      "LQ": 7073,
      "NA": 7074,
      "NN": 7075,
      "Ng": 7076,
      "Name": 7077,
      "Oy": 7078,
      "PK": 7079,
      "Pe": 7080,
      "Priv": 7081,
      "Qs": 7082,
      "RI": 7083,
      "SE": 7084,
      "TO": 7085,
      "UK": 7086,
      "Would": 7087,
      "XT": 7088,
      "XZ": 7089,
      "Xu": 7090,
      "Xy": 7091,
      "Ys": 7092,
      "Zs": 7093,
      "ZOHO": 7094,
      "aM": 7095,
      "burde": 7096,
      "cL": 7097,
      "cits": 7098,
      "dY": 7099,
      "eq": 7100,
      "fK": 7101,
      "flo": 7102,
      "first": 7103,
      "gP": 7104,
      "hW": 7105,
      "hn": 7106,
      "iq": 7107,
      "iel": 7108,
      "jadhav": 7109,
      "jagtap": 7110,
      "katgar": 7111,
      "mf": 7112,
      "mm": 7113,
      "ox": 7114,
      "pw": 7115,
      "powered": 7116,
      "rf": 7117,
      "rahulm": 7118,
      "set": 7119,
      "sapp": 7120,
      "tw": 7121,
      "uo": 7122,
      "ucU": 7123,
      "witch": 7124,
      "yat": 7125,
      "zb": 7126,
      "Ġ!": 7127,
      "Ġ^": 7128,
      "Ġob": 7129,
      "Ġest": 7130,
      "Ġ----": 7131,
      "Ġ86": 7132,
      "ĠčĊĠč": 7133,
      "Ġesc": 7134,
      "âĢĺ": 7135,
      "ery": 7136,
      "cop": 7137,
      "Ġtarget": 7138,
      "ora": 7139,
      "comes": 7140,
      "arvind": 7141,
      "isions": 7142,
      "Ġserv": 7143,
      "Ġseat": 7144,
      "ĠSing": 7145,
      "ĠSubscri": 7146,
      "ĠSunita": 7147,
      "elf": 7148,
      "Ġrec": 7149,
      "Ġrest": 7150,
      "ĠPo": 7151,
      "acf": 7152,
      "Ġworks": 7153,
      "ĠAMD": 7154,
      "ĠMin": 7155,
      "ĠMarket": 7156,
      "conference": 7157,
      "ĠTX": 7158,
      "ĠTHE": 7159,
      "Ġdevelop": 7160,
      "Ġdedicated": 7161,
      "ago": 7162,
      "ĠCode": 7163,
      "ĠCNAPP": 7164,
      "level": 7165,
      "obig": 7166,
      "Ġbrowser": 7167,
      "Ġbrief": 7168,
      "Ġmonths": 7169,
      "ĠDav": 7170,
      "Ġemp": 7171,
      "ĠGu": 7172,
      "quired": 7173,
      "olid": 7174,
      "ignesh": 7175,
      "ĠFuture": 7176,
      "istribut": 7177,
      "965": 7178,
      "ava": 7179,
      "ĠEY": 7180,
      "ĠEd": 7181,
      "ĠUnder": 7182,
      "ĠBilling": 7183,
      "ĠBiometric": 7184,
      "ĠLe": 7185,
      "ifically": 7186,
      "ĠReg": 7187,
      "posure": 7188,
      "556": 7189,
      "557": 7190,
      "mage": 7191,
      "509": 7192,
      "0373": 7193,
      "5841": 7194,
      "4199": 7195,
      "lled": 7196,
      "1060": 7197,
      "561": 7198,
      "ĠVignesh": 7199,
      "693": 7200,
      "697": 7201,
      "ĠKatgar": 7202,
      "Ġexce": 7203,
      "289": 7204,
      "Ġrout": 7205,
      "search": 7206,
      "3951": 7207,
      "3979": 7208,
      "ireless": 7209,
      "afb": 7210,
      "subscribing": 7211,
      "ĠJun": 7212,
      "ĠJul": 7213,
      "Ġtry": 7214,
      "Ġshap": 7215,
      "197": 7216,
      "Ġwhether": 7217,
      "Ġunsubscribing": 7218,
      "Ġmeetings": 7219,
      "tkucU": 7220,
      "ĠProfessionals": 7221,
      "8538": 7222,
      "STO": 7223,
      "Ġdisable": 7224,
      "Ġdiscover": 7225,
      "Ġleft": 7226,
      "attacks": 7227,
      "Ġchecks": 7228,
      "710373": 7229,
      "exp": 7230,
      "790": 7231,
      "Ġpres": 7232,
      "LWlu": 7233,
      "1106417": 7234,
      "Shashikant": 7235,
      "MDQAAAGYMu": 7236,
      "MDQAAAGYkj": 7237,
      "MDQAAAGYtkucU": 7238,
      "Ġprocesses": 7239,
      "ĠAssistant": 7240,
      "Ġscale": 7241,
      "Program": 7242,
      "Webinar": 7243,
      "Ġproductivity": 7244,
      "Ġattendees": 7245,
      "pecially": 7246,
      "ĠWebinar": 7247,
      "Ġregularization": 7248,
      "ĠAttendees": 7249,
      "iyer": 7250,
      "ĠCompany": 7251,
      "Ġsyn": 7252,
      "ĠBuilding": 7253,
      "cepts": 7254,
      "PDP": 7255,
      "Ġrelating": 7256,
      "ĠExplore": 7257,
      "Ġelev": 7258,
      "Ġdetect": 7259,
      "1721106417": 7260,
      "Ġtrends": 7261,
      "Ġdelete": 7262,
      "Ġaudit": 7263,
      "ethod": 7264,
      "Ġbehalf": 7265,
      "ĠVisualization": 7266,
      "Ġcontracted": 7267,
      "Ġdatabase": 7268,
      "charu": 7269,
      "Ġcorrect": 7270,
      "ĠYears": 7271,
      "Ġdisruption": 7272,
      "Corporation": 7273,
      "Ġdeployment": 7274,
      "Ġproblem": 7275,
      "ĠSprint": 7276,
      "ĠIssue": 7277,
      "Ġshortly": 7278,
      "dropbox": 7279,
      "Ġespecially": 7280,
      "ĠYOUR": 7281,
      "Ġrange": 7282,
      "ĠRenewal": 7283,
      "citsolutions": 7284,
      "Ġescal": 7285,
      "MDQAAAGYMuw": 7286,
      "))": 7287,
      "036": 7288,
      "3783": 7289,
      "432": 7290,
      "4100": 7291,
      "596": 7292,
      "638": 7293,
      "808": 7294,
      "951": 7295,
      "907": 7296,
      "And": 7297,
      "ATA": 7298,
      "Be": 7299,
      "Bt": 7300,
      "Big": 7301,
      "Co": 7302,
      "Card": 7303,
      "DU": 7304,
      "Dj": 7305,
      "Dt": 7306,
      "Dgs": 7307,
      "EY": 7308,
      "FI": 7309,
      "FU": 7310,
      "Hs": 7311,
      "Hy": 7312,
      "ION": 7313,
      "KH": 7314,
      "Le": 7315,
      "Lk": 7316,
      "Lead": 7317,
      "Legion": 7318,
      "MSTO": 7319,
      "Nvb": 7320,
      "OY": 7321,
      "QiO": 7322,
      "Rb": 7323,
      "Ri": 7324,
      "Round": 7325,
      "System": 7326,
      "Swapnil": 7327,
      "TZ": 7328,
      "Top": 7329,
      "UB": 7330,
      "Use": 7331,
      "VH": 7332,
      "VP": 7333,
      "Vt": 7334,
      "aH": 7335,
      "aad": 7336,
      "ban": 7337,
      "band": 7338,
      "cR": 7339,
      "civil": 7340,
      "cuZ": 7341,
      "dq": 7342,
      "date": 7343,
      "details": 7344,
      "fn": 7345,
      "file": 7346,
      "gt": 7347,
      "hB": 7348,
      "hV": 7349,
      "hing": 7350,
      "iu": 7351,
      "jM": 7352,
      "jc": 7353,
      "kumar": 7354,
      "lS": 7355,
      "mn": 7356,
      "mo": 7357,
      "mium": 7358,
      "marketing": 7359,
      "nT": 7360,
      "oard": 7361,
      "ochi": 7362,
      "pk": 7363,
      "ping": 7364,
      "qS": 7365,
      "rZ": 7366,
      "rx": 7367,
      "raf": 7368,
      "sq": 7369,
      "suring": 7370,
      "sagar": 7371,
      "uU": 7372,
      "uW": 7373,
      "vr": 7374,
      "xOT": 7375,
      "yz": 7376,
      "zS": 7377,
      "zU": 7378,
      "zY": 7379,
      "zh": 7380,
      "zj": 7381,
      "zt": 7382,
      "ĠĊ": 7383,
      "Ġ58": 7384,
      "âĢĳ": 7385,
      "inu": 7386,
      "educt": 7387,
      "edCard": 7388,
      "rey": 7389,
      "release": 7390,
      "require": 7391,
      "Ġtun": 7392,
      "Ġtem": 7393,
      "Ġtwo": 7394,
      "ĠâĢ¢": 7395,
      "ilo": 7396,
      "ilient": 7397,
      "htter": 7398,
      "ington": 7399,
      "Ġsomet": 7400,
      "andance": 7401,
      "ĠSmarter": 7402,
      "ĠSmith": 7403,
      "ĠStore": 7404,
      "ĠSeagate": 7405,
      "ĠSoftTech": 7406,
      "elps": 7407,
      "aces": 7408,
      "etc": 7409,
      "ĠAirtel": 7410,
      "ĠMy": 7411,
      "ĠMessages": 7412,
      "ĠMaint": 7413,
      "Ġpassword": 7414,
      "ĠTue": 7415,
      "advert": 7416,
      "Ġdeep": 7417,
      "Ġdeliv": 7418,
      "Ġdistribut": 7419,
      "ĠII": 7420,
      "Ġinadvert": 7421,
      "ĠCivit": 7422,
      "Ġbudget": 7423,
      "ĠDas": 7424,
      "ĠDear": 7425,
      "ĠDeloitte": 7426,
      "112": 7427,
      "Ġebook": 7428,
      "urday": 7429,
      "Ġformal": 7430,
      "Ġhelps": 7431,
      "quart": 7432,
      "imated": 7433,
      "imization": 7434,
      "umira": 7435,
      "012": 7436,
      "ĠFe": 7437,
      "ĠFran": 7438,
      "ĠFiber": 7439,
      "960": 7440,
      "Ġ((": 7441,
      "ĠEnd": 7442,
      "indow": 7443,
      "iran": 7444,
      "Ġongoing": 7445,
      "ĠRegist": 7446,
      "ĠRegarding": 7447,
      "55218": 7448,
      "508": 7449,
      "7618": 7450,
      "76383": 7451,
      "Ġorders": 7452,
      "track": 7453,
      "ebal": 7454,
      "4136": 7455,
      "981": 7456,
      "ĠThere": 7457,
      "ĠThey": 7458,
      "ĠThank": 7459,
      "show": 7460,
      "437": 7461,
      "3842": 7462,
      "38457": 7463,
      "ddy": 7464,
      "ĠVendor": 7465,
      "Ġgu": 7466,
      "Ġgood": 7467,
      "scl": 7468,
      "beCI": 7469,
      "515": 7470,
      "software": 7471,
      "ĠKol": 7472,
      "ĠKochi": 7473,
      "Ġexact": 7474,
      "462": 7475,
      "78682": 7476,
      "Ġraveena": 7477,
      "Ġvary": 7478,
      "061": 7479,
      "137": 7480,
      "ĠTechnologiesOne": 7481,
      "Puneet": 7482,
      "Ġattandance": 7483,
      "957": 7484,
      "ĠJonathan": 7485,
      "event": 7486,
      "4734": 7487,
      "Ġensuring": 7488,
      "msg": 7489,
      "eriod": 7490,
      "Ġanalytics": 7491,
      "Ġunp": 7492,
      "Ġunique": 7493,
      "BAL": 7494,
      "Ġmean": 7495,
      "NDd": 7496,
      "Ġexpansion": 7497,
      "ĠConferences": 7498,
      "ĠCombo": 7499,
      "Ġattachment": 7500,
      "Ġentire": 7501,
      "apps": 7502,
      "Ġdisplay": 7503,
      "zohocrm": 7504,
      "Ġquarantine": 7505,
      "ramew": 7506,
      "Iftekhar": 7507,
      "ustain": 7508,
      "socialbowl": 7509,
      "72100": 7510,
      "warded": 7511,
      "890": 7512,
      "ĠXe": 7513,
      "mployer": 7514,
      "cluded": 7515,
      "cfcb": 7516,
      "ncy": 7517,
      "supportdesk": 7518,
      "MDQAAAGYJZ": 7519,
      "MDQAAAGYbeCI": 7520,
      "Ġlove": 7521,
      "Ġapprove": 7522,
      "ĠUnit": 7523,
      "ĠUnified": 7524,
      "ĠUnebal": 7525,
      "ĠAssess": 7526,
      "ĠQuarantine": 7527,
      "Ġconfirmation": 7528,
      "ĠCIS": 7529,
      "Stay": 7530,
      "Muk": 7531,
      "ĠMehtter": 7532,
      "Ġposture": 7533,
      "Ġblind": 7534,
      "ĠWayRound": 7535,
      "pecials": 7536,
      "ĠWebsite": 7537,
      "Ġcosts": 7538,
      "Ġarising": 7539,
      "Ġdecline": 7540,
      "Ġdecisions": 7541,
      "Ġ78682": 7542,
      "qtz": 7543,
      "GhKT": 7544,
      "09070": 7545,
      "ceptable": 7546,
      "Ġpositive": 7547,
      "PEPF": 7548,
      "surance": 7549,
      "Performance": 7550,
      "minute": 7551,
      "Ġprimary": 7552,
      "rlkey": 7553,
      "Enterprise": 7554,
      "ĠAcceptable": 7555,
      "ĠHeadquart": 7556,
      "ĠPrevented": 7557,
      "ĠSaturday": 7558,
      "121303": 7559,
      "Payload": 7560,
      "aboration": 7561,
      "ĠRockTX": 7562,
      "Official": 7563,
      "Ġowners": 7564,
      "Ġresponsible": 7565,
      "roadband": 7566,
      "88615": 7567,
      "4857618": 7568,
      "ĠAudit": 7569,
      "SignedCard": 7570,
      "Ġproperly": 7571,
      "Ġtasks": 7572,
      "Ġtruly": 7573,
      "Ġmatter": 7574,
      "ĠGoods": 7575,
      "Attend": 7576,
      "Ġarchitecture": 7577,
      "ĠIdent": 7578,
      "yOTAAAAGhKT": 7579,
      "145042": 7580,
      "management": 7581,
      "ĠQuality": 7582,
      "Ġeasier": 7583,
      "ĠInstall": 7584,
      "Ġvaluable": 7585,
      "ĠRader": 7586,
      "8896248": 7587,
      "BDDB": 7588,
      "raspecials": 7589,
      "ĠMistakes": 7590,
      "heeraj": 7591,
      "BEEF": 7592,
      "Esdee": 7593,
      "yatraspecials": 7594,
      "MDQAAAGYMuwjN": 7595,
      "Ġdelivers": 7596,
      "Ġinadvertent": 7597,
      "552183842": 7598,
      "MDQAAAGYJZB": 7599,
      "ĠHeadquarters": 7600,
      "SignedCardPayload": 7601,
      "/)": 7602,
      "/{": 7603,
      "4173": 7604,
      "4250": 7605,
      "6989": 7606,
      "826": 7607,
      "806": 7608,
      "868": 7609,
      "930": 7610,
      "><": 7611,
      "Access": 7612,
      "Auth": 7613,
      "Amount": 7614,
      "BZ": 7615,
      "Ct": 7616,
      "Call": 7617,
      "CAD": 7618,
      "DI": 7619,
      "Direct": 7620,
      "DED": 7621,
      "EI": 7622,
      "End": 7623,
      "Fq": 7624,
      "FCC": 7625,
      "GG": 7626,
      "GST": 7627,
      "JE": 7628,
      "Jc": 7629,
      "Km": 7630,
      "Kq": 7631,
      "LM": 7632,
      "Lg": 7633,
      "Nr": 7634,
      "Oe": 7635,
      "Out": 7636,
      "Pn": 7637,
      "Pu": 7638,
      "QA": 7639,
      "Qo": 7640,
      "RG": 7641,
      "Red": 7642,
      "Secure": 7643,
      "Test": 7644,
      "UE": 7645,
      "VB": 7646,
      "Vr": 7647,
      "Work": 7648,
      "XE": 7649,
      "Yc": 7650,
      "YiOjEsIm": 7651,
      "ZV": 7652,
      "Zi": 7653,
      "aZ": 7654,
      "ault": 7655,
      "bx": 7656,
      "dis": 7657,
      "eaa": 7658,
      "fg": 7659,
      "ght": 7660,
      "hw": 7661,
      "iE": 7662,
      "iuu": 7663,
      "lF": 7664,
      "lJ": 7665,
      "lN": 7666,
      "mU": 7667,
      "mq": 7668,
      "mut": 7669,
      "nJ": 7670,
      "nection": 7671,
      "oAAAAAA": 7672,
      "product": 7673,
      "policies": 7674,
      "qP": 7675,
      "sm": 7676,
      "sing": 7677,
      "sunita": 7678,
      "uE": 7679,
      "uw": 7680,
      "vA": 7681,
      "vK": 7682,
      "vit": 7683,
      "wL": 7684,
      "wer": 7685,
      "xB": 7686,
      "xE": 7687,
      "yM": 7688,
      "yZ": 7689,
      "yk": 7690,
      "}_": 7691,
      "Ġ29": 7692,
      "Ġ91": 7693,
      "ĠčĊčĊĠ": 7694,
      "ĠčĊčĊčĊčĊčĊčĊčĊčĊčĊčĊčĊčĊčĊčĊčĊčĊ": 7695,
      "Ġetc": 7696,
      "ann": 7697,
      "ought": 7698,
      "reach": 7699,
      "ening": 7700,
      "Ġtarg": 7701,
      "orn": 7702,
      "arri": 7703,
      "ala": 7704,
      "asing": 7705,
      "005": 7706,
      "Ġthen": 7707,
      "Ġthose": 7708,
      "Ġside": 7709,
      "Ġstop": 7710,
      "Ġsmarter": 7711,
      "uty": 7712,
      "ĠSim": 7713,
      "ĠSave": 7714,
      "ĠSmart": 7715,
      "Ġfix": 7716,
      "elast": 7717,
      "2023": 7718,
      "Ġrelocation": 7719,
      "Ġrecogn": 7720,
      "ĠPty": 7721,
      "ĠPassword": 7722,
      "iced": 7723,
      "Ġwin": 7724,
      "čĊčĊĠĠĠĠĠĠĠ": 7725,
      "ĠMon": 7726,
      "Ġpack": 7727,
      "ĠTw": 7728,
      "ĠTicket": 7729,
      "idth": 7730,
      "igible": 7731,
      "add": 7732,
      "Ġdid": 7733,
      "Ġdesk": 7734,
      "ĠIVR": 7735,
      "ĠISP": 7736,
      "ĠCal": 7737,
      "lev": 7738,
      "Ġbill": 7739,
      "ivid": 7740,
      "25742": 7741,
      "ĠDDR": 7742,
      "ĠDemo": 7743,
      "Ġca": 7744,
      "Ġcal": 7745,
      "ept": 7746,
      "ĠGLO": 7747,
      "urpos": 7748,
      "osp": 7749,
      "ĠNSW": 7750,
      "cta": 7751,
      "imum": 7752,
      "969": 7753,
      "992": 7754,
      "contact": 7755,
      "ĠUNSUBSCRIBE": 7756,
      "ĠWEB": 7757,
      "ĠWireless": 7758,
      "abfe": 7759,
      "046989": 7760,
      "ĠBackup": 7761,
      "ĠLast": 7762,
      "ĠLaptop": 7763,
      "Ġ2060": 7764,
      "ifting": 7765,
      "ĠRevit": 7766,
      "Ġ400": 7767,
      "55046989": 7768,
      "AAoAAAAAA": 7769,
      "5039": 7770,
      "7666": 7771,
      "702": 7772,
      "ĠHub": 7773,
      "100962": 7774,
      "1009628": 7775,
      "1009645": 7776,
      "1009655046989": 7777,
      "shot": 7778,
      "omec": 7779,
      "216": 7780,
      "431": 7781,
      "4338": 7782,
      "ddbd": 7783,
      "Ġnotes": 7784,
      "Ġnotice": 7785,
      "harath": 7786,
      "167": 7787,
      "icemail": 7788,
      "271623": 7789,
      "4600": 7790,
      "Ġrack": 7791,
      "067": 7792,
      "2954": 7793,
      "3901": 7794,
      "ĠUSB": 7795,
      "Ġupgrad": 7796,
      "9220": 7797,
      "379": 7798,
      "19059": 7799,
      "FEED": 7800,
      "15389": 7801,
      "LUVWV": 7802,
      "085": 7803,
      "145039": 7804,
      "InYiOjEsIm": 7805,
      "Reqq": 7806,
      "MzLUVWV": 7807,
      "jpeg": 7808,
      "ĠĠĠĠĠĠĠĠĠĠĠĠĠĠĠĠĠ": 7809,
      "8125742": 7810,
      "Ġdisclo": 7811,
      "ĠExtra": 7812,
      "Ġchinmay": 7813,
      "33160": 7814,
      "59009": 7815,
      "ĠIntimation": 7816,
      "Ġadvant": 7817,
      "Whether": 7818,
      "Ġopportunities": 7819,
      "ĠSydn": 7820,
      "ekRq": 7821,
      "Ġalways": 7822,
      "cheduled": 7823,
      "peakers": 7824,
      "9011": 7825,
      "65295": 7826,
      "Ġstrategic": 7827,
      "Ġsuitable": 7828,
      "Ġreached": 7829,
      "ikanta": 7830,
      "Ġ275": 7831,
      "ĠUnited": 7832,
      "Ġconnections": 7833,
      "MjMzLUVWV": 7834,
      "Ġtechnician": 7835,
      "100966460": 7836,
      "10096615389": 7837,
      "1009668125742": 7838,
      "Aniket": 7839,
      "ajay": 7840,
      "POS": 7841,
      "apacity": 7842,
      "newsletter": 7843,
      "Ġtransformation": 7844,
      "Agile": 7845,
      "nbRs": 7846,
      "Ġsubscription": 7847,
      "Ġlogs": 7848,
      "alasia": 7849,
      "Architect": 7850,
      "962110": 7851,
      "CBEC": 7852,
      "Principal": 7853,
      "Ġapproxim": 7854,
      "knekRq": 7855,
      "Ġelim": 7856,
      "1009645133160": 7857,
      "ĠCohesity": 7858,
      "âĢĭâĢĭâĢĭâĢĭ": 7859,
      "ĠReminder": 7860,
      "Ġquery": 7861,
      "MTUAAAGac": 7862,
      "ĠPartners": 7863,
      "580256": 7864,
      "Ġconsider": 7865,
      "9459": 7866,
      "Feel": 7867,
      "Ġcustomers": 7868,
      "Synology": 7869,
      "aborate": 7870,
      "Ġadopt": 7871,
      "Ġassessment": 7872,
      "ĠAustralia": 7873,
      "ĠAustralasia": 7874,
      "6265": 7875,
      "Ġhearing": 7876,
      "HSBC": 7877,
      "1009623909780": 7878,
      "Ġrunning": 7879,
      "ĠSurveying": 7880,
      "Ġallowed": 7881,
      "Ġscreenshot": 7882,
      "Ġrecommend": 7883,
      "ifecta": 7884,
      "ĠHDFC": 7885,
      "1009658271623": 7886,
      "Ġcomplexity": 7887,
      "Ġrefresh": 7888,
      "1009654459009": 7889,
      "1618580256": 7890,
      "320962110": 7891,
      "ields": 7892,
      "ĠSubscription": 7893,
      "41001": 7894,
      "QiOjQ": 7895,
      "xOTIAAAG": 7896,
      "ĠDasharath": 7897,
      "ĠFrancisco": 7898,
      "MDQAAAGYJZBri": 7899,
      "FCCACC": 7900,
      "iuuqt": 7901,
      "elasticemail": 7902,
      "ĠGLOBAL": 7903,
      "AAoAAAAAAAP": 7904,
      "InYiOjEsImQiOjQ": 7905,
      "ReqqnbRs": 7906,
      "ĠSydney": 7907,
      "MjMzLUVWVi": 7908,
      "10096646070": 7909,
      "1009661538934": 7910,
      "knekRqte": 7911,
      "1618580256453": 7912,
      ",+": 7913,
      ".<": 7914,
      "055": 7915,
      "338": 7916,
      "469": 7917,
      "501": 7918,
      "543": 7919,
      "547": 7920,
      "600": 7921,
      "611": 7922,
      "644": 7923,
      "639": 7924,
      "798": 7925,
      "751": 7926,
      "830": 7927,
      "810": 7928,
      "807": 7929,
      "938": 7930,
      ":+": 7931,
      "AK": 7932,
      "AQ": 7933,
      "Ab": 7934,
      "Akhilesh": 7935,
      "Ban": 7936,
      "CZ": 7937,
      "Cj": 7938,
      "DY": 7939,
      "DAE": 7940,
      "EU": 7941,
      "Ed": 7942,
      "Founder": 7943,
      "Gi": 7944,
      "Genpact": 7945,
      "HT": 7946,
      "Hf": 7947,
      "IJ": 7948,
      "JS": 7949,
      "KB": 7950,
      "Kb": 7951,
      "Kj": 7952,
      "Kk": 7953,
      "LG": 7954,
      "Lj": 7955,
      "Loo": 7956,
      "Ltd": 7957,
      "MJ": 7958,
      "Oo": 7959,
      "Oq": 7960,
      "Overdue": 7961,
      "Ps": 7962,
      "QE": 7963,
      "QH": 7964,
      "Qc": 7965,
      "RJ": 7966,
      "Rv": 7967,
      "Rahul": 7968,
      "RHC": 7969,
      "SF": 7970,
      "SG": 7971,
      "So": 7972,
      "Save": 7973,
      "UA": 7974,
      "Ug": 7975,
      "Um": 7976,
      "WH": 7977,
      "WY": 7978,
      "Ww": 7979,
      "Xd": 7980,
      "YE": 7981,
      "YL": 7982,
      "ZGl": 7983,
      "aL": 7984,
      "amaz": 7985,
      "amage": 7986,
      "bC": 7987,
      "bJ": 7988,
      "bN": 7989,
      "bt": 7990,
      "bbe": 7991,
      "cert": 7992,
      "calendar": 7993,
      "dF": 7994,
      "dXR": 7995,
      "demo": 7996,
      "eyb": 7997,
      "fC": 7998,
      "fR": 7999
    },
    "merges": [
      [
        "â",
        "Ģ"
      ],
      [
        "č",
        "Ċ"
      ],
      [
        "i",
        "n"
      ],
      [
        "e",
        "r"
      ],
      [
        "c",
        "o"
      ],
      [
        "a",
        "t"
      ],
      [
        "a",
        "n"
      ],
      [
        "o",
        "u"
      ],
      [
        "e",
        "d"
      ],
      [
        "r",
        "e"
      ],
      [
        "čĊ",
        "č"
      ],
      [
        "e",
        "n"
      ],
      [
        "Ġ",
        "t"
      ],
      [
        "o",
        "r"
      ],
      [
        "e",
        "s"
      ],
      [
        "o",
        "n"
      ],
      [
        "co",
        "m"
      ],
      [
        "ou",
        "r"
      ],
      [
        "_",
        "_"
      ],
      [
        "Ġ",
        "âĢ"
      ],
      [
        "i",
        "l"
      ],
      [
        "ĠâĢ",
        "Į"
      ],
      [
        "a",
        "r"
      ],
      [
        "Ġ",
        "Ġ"
      ],
      [
        "»",
        "¿"
      ],
      [
        "ï",
        "»¿"
      ],
      [
        "i",
        "t"
      ],
      [
        "a",
        "l"
      ],
      [
        "i",
        "s"
      ],
      [
        "c",
        "e"
      ],
      [
        "h",
        "t"
      ],
      [
        "r",
        "o"
      ],
      [
        "e",
        "c"
      ],
      [
        "s",
        "our"
      ],
      [
        "a",
        "s"
      ],
      [
        "0",
        "0"
      ],
      [
        "in",
        "g"
      ],
      [
        "m",
        "a"
      ],
      [
        "Ġt",
        "h"
      ],
      [
        "i",
        "on"
      ],
      [
        "Ġ",
        "s"
      ],
      [
        "t",
        "p"
      ],
      [
        "âĢ",
        "ĭ"
      ],
      [
        "âĢ",
        "İ"
      ],
      [
        "į",
        "âĢİ"
      ],
      [
        "ı",
        "ï»¿"
      ],
      [
        "âĢ",
        "įâĢİ"
      ],
      [
        "âĢ",
        "ıï»¿"
      ],
      [
        "ĠâĢĮ",
        "âĢĭ"
      ],
      [
        "âĢįâĢİ",
        "âĢıï»¿"
      ],
      [
        "ĠâĢĮâĢĭ",
        "âĢįâĢİâĢıï»¿"
      ],
      [
        "ht",
        "tp"
      ],
      [
        "u",
        "t"
      ],
      [
        "en",
        "t"
      ],
      [
        "an",
        "d"
      ],
      [
        ":",
        "/"
      ],
      [
        ":/",
        "/"
      ],
      [
        "Ġ",
        "a"
      ],
      [
        "w",
        "w"
      ],
      [
        "Ġ",
        "S"
      ],
      [
        "Ġ",
        "f"
      ],
      [
        "http",
        "s"
      ],
      [
        "g",
        "sour"
      ],
      [
        "e",
        "l"
      ],
      [
        "2",
        "0"
      ],
      [
        "Ġ",
        "re"
      ],
      [
        "at",
        "a"
      ],
      [
        "Ġ",
        "P"
      ],
      [
        "i",
        "c"
      ],
      [
        "a",
        "c"
      ],
      [
        "l",
        "o"
      ],
      [
        "__",
        "__"
      ],
      [
        "c",
        "ed"
      ],
      [
        "e",
        "t"
      ],
      [
        "Ġ",
        "w"
      ],
      [
        "a",
        "m"
      ],
      [
        "čĊ",
        "čĊ"
      ],
      [
        "Ġth",
        "e"
      ],
      [
        "Ġt",
        "o"
      ],
      [
        "ced",
        "ata"
      ],
      [
        "gsour",
        "cedata"
      ],
      [
        "Ġ",
        "A"
      ],
      [
        "Ġ",
        "M"
      ],
      [
        "ma",
        "il"
      ],
      [
        "Ġ",
        "y"
      ],
      [
        "co",
        "n"
      ],
      [
        "=",
        "="
      ],
      [
        "Ġ",
        "p"
      ],
      [
        "Ġ",
        "T"
      ],
      [
        "Ġ",
        "<"
      ],
      [
        "Í",
        "ı"
      ],
      [
        "i",
        "d"
      ],
      [
        "Ġ",
        "and"
      ],
      [
        "i",
        "g"
      ],
      [
        "a",
        "d"
      ],
      [
        "Ġ",
        "d"
      ],
      [
        "a",
        "g"
      ],
      [
        "-",
        "-"
      ],
      [
        "Ġ",
        "I"
      ],
      [
        "Ġ",
        "R"
      ],
      [
        "ut",
        "m"
      ],
      [
        "Ġ",
        "in"
      ],
      [
        "Ġ",
        "C"
      ],
      [
        "l",
        "e"
      ],
      [
        "u",
        "b"
      ],
      [
        "u",
        "n"
      ],
      [
        "n",
        "o"
      ],
      [
        "u",
        "s"
      ],
      [
        "o",
        "b"
      ],
      [
        "ĠĠ",
        "ĠĠ"
      ],
      [
        "Ġ",
        "b"
      ],
      [
        "o",
        "f"
      ],
      [
        "at",
        "ion"
      ],
      [
        "i",
        "v"
      ],
      [
        "2",
        "6"
      ],
      [
        "Ġ",
        "m"
      ],
      [
        "ww",
        "w"
      ],
      [
        "2",
        "5"
      ],
      [
        "j",
        "ob"
      ],
      [
        "Ġ",
        "D"
      ],
      [
        "er",
        "t"
      ],
      [
        "i",
        "k"
      ],
      [
        "ec",
        "t"
      ],
      [
        "1",
        "1"
      ],
      [
        "Ġ",
        "c"
      ],
      [
        "e",
        "p"
      ],
      [
        "Ġ",
        "e"
      ],
      [
        "Ġ",
        "G"
      ],
      [
        "ro",
        "m"
      ],
      [
        "en",
        "d"
      ],
      [
        "es",
        "s"
      ],
      [
        "l",
        "y"
      ],
      [
        "u",
        "r"
      ],
      [
        "Ġf",
        "or"
      ],
      [
        "o",
        "s"
      ],
      [
        "Ġ",
        "Â"
      ],
      [
        "Ġy",
        "ou"
      ],
      [
        "Ġ",
        "h"
      ],
      [
        "n",
        "g"
      ],
      [
        "Ġ",
        "N"
      ],
      [
        "c",
        "t"
      ],
      [
        "q",
        "u"
      ],
      [
        "âĢ",
        "ĩ"
      ],
      [
        "c",
        "a"
      ],
      [
        "____",
        "____"
      ],
      [
        "i",
        "m"
      ],
      [
        "e",
        "m"
      ],
      [
        "o",
        "l"
      ],
      [
        "as",
        "s"
      ],
      [
        "ig",
        "n"
      ],
      [
        "ec",
        "h"
      ],
      [
        "u",
        "m"
      ],
      [
        "ĠÂ",
        "Ń"
      ],
      [
        "0",
        "1"
      ],
      [
        "Ġ",
        "F"
      ],
      [
        "it",
        "y"
      ],
      [
        "Ġ",
        "of"
      ],
      [
        "==",
        "=="
      ],
      [
        "o",
        "o"
      ],
      [
        "o",
        "w"
      ],
      [
        "is",
        "t"
      ],
      [
        "lo",
        "g"
      ],
      [
        "u",
        "l"
      ],
      [
        "9",
        "6"
      ],
      [
        "or",
        "t"
      ],
      [
        "Ġ",
        "-"
      ],
      [
        "a",
        "v"
      ],
      [
        "s",
        "t"
      ],
      [
        "Ġ",
        "("
      ],
      [
        "a",
        "y"
      ],
      [
        "2",
        "4"
      ],
      [
        "p",
        "p"
      ],
      [
        "t",
        "o"
      ],
      [
        "Ġ",
        "1"
      ],
      [
        "e",
        "ep"
      ],
      [
        "p",
        "ng"
      ],
      [
        "9",
        "9"
      ],
      [
        "es",
        "t"
      ],
      [
        "Ġ",
        "is"
      ],
      [
        "Ġ",
        "E"
      ],
      [
        "3",
        "0"
      ],
      [
        "at",
        "e"
      ],
      [
        "sour",
        "ce"
      ],
      [
        "--",
        "--"
      ],
      [
        "and",
        "eep"
      ],
      [
        "Ġ",
        "|"
      ],
      [
        "j",
        "ect"
      ],
      [
        "con",
        "t"
      ],
      [
        "an",
        "ag"
      ],
      [
        "ed",
        "i"
      ],
      [
        "Ġy",
        "our"
      ],
      [
        "d",
        "u"
      ],
      [
        "o",
        "or"
      ],
      [
        "l",
        "ert"
      ],
      [
        "Ġ",
        "U"
      ],
      [
        "Ġ",
        "W"
      ],
      [
        "m",
        "edi"
      ],
      [
        "it",
        "h"
      ],
      [
        "as",
        "e"
      ],
      [
        "ro",
        "du"
      ],
      [
        "ï»¿",
        "Íı"
      ],
      [
        "c",
        "h"
      ],
      [
        "l",
        "ass"
      ],
      [
        "ar",
        "t"
      ],
      [
        "o",
        "p"
      ],
      [
        "Â",
        "ł"
      ],
      [
        "er",
        "s"
      ],
      [
        "3",
        "2"
      ],
      [
        "a",
        "b"
      ],
      [
        "ub",
        "ject"
      ],
      [
        "0",
        "4"
      ],
      [
        "i",
        "es"
      ],
      [
        "Ġ",
        "l"
      ],
      [
        "in",
        "d"
      ],
      [
        "d",
        "oor"
      ],
      [
        "lass",
        "door"
      ],
      [
        "Ġ",
        "B"
      ],
      [
        "ĠI",
        "n"
      ],
      [
        "ar",
        "d"
      ],
      [
        "i",
        "r"
      ],
      [
        "i",
        "con"
      ],
      [
        "p",
        "a"
      ],
      [
        "g",
        "r"
      ],
      [
        "Ġ",
        "L"
      ],
      [
        "Ġ",
        "20"
      ],
      [
        "Ġ",
        ">"
      ],
      [
        "i",
        "f"
      ],
      [
        "Ġw",
        "ith"
      ],
      [
        "1",
        "7"
      ],
      [
        "e",
        "mail"
      ],
      [
        "F",
        "rom"
      ],
      [
        "Ġ",
        "on"
      ],
      [
        "ĠR",
        "e"
      ],
      [
        "A",
        "lert"
      ],
      [
        "ut",
        "o"
      ],
      [
        "el",
        "q"
      ],
      [
        "S",
        "ubject"
      ],
      [
        "p",
        "os"
      ],
      [
        "rodu",
        "ct"
      ],
      [
        "Ġ",
        "4"
      ],
      [
        "un",
        "e"
      ],
      [
        "t",
        "h"
      ],
      [
        "t",
        "e"
      ],
      [
        "5",
        "5"
      ],
      [
        "t",
        "er"
      ],
      [
        "8",
        "8"
      ],
      [
        "3",
        "6"
      ],
      [
        "A",
        "A"
      ],
      [
        "ma",
        "g"
      ],
      [
        "n",
        "er"
      ],
      [
        "u",
        "re"
      ],
      [
        "Ġ",
        "no"
      ],
      [
        "am",
        "pa"
      ],
      [
        "ampa",
        "ign"
      ],
      [
        "no",
        "log"
      ],
      [
        "Ġ",
        "ï»¿Íı"
      ],
      [
        "c",
        "d"
      ],
      [
        "n",
        "et"
      ],
      [
        "5",
        "0"
      ],
      [
        "ar",
        "k"
      ],
      [
        "ag",
        "e"
      ],
      [
        "an",
        "y"
      ],
      [
        "ĠT",
        "ech"
      ],
      [
        "T",
        "h"
      ],
      [
        "r",
        "i"
      ],
      [
        "le",
        "ase"
      ],
      [
        "7",
        "6"
      ],
      [
        "0",
        "3"
      ],
      [
        "1",
        "00"
      ],
      [
        "es",
        "h"
      ],
      [
        "a",
        "re"
      ],
      [
        "Ġ",
        "or"
      ],
      [
        "u",
        "p"
      ],
      [
        "Ġ",
        "â"
      ],
      [
        "e",
        "w"
      ],
      [
        "in",
        "k"
      ],
      [
        "m",
        "ent"
      ],
      [
        "ĠĠĠĠ",
        "ĠĠĠĠ"
      ],
      [
        "i",
        "mag"
      ],
      [
        "Ġe",
        "mail"
      ],
      [
        "c",
        "ampaign"
      ],
      [
        "5",
        "8"
      ],
      [
        "7",
        "0"
      ],
      [
        "roduct",
        "ion"
      ],
      [
        "j",
        "a"
      ],
      [
        "s",
        "s"
      ],
      [
        "t",
        "r"
      ],
      [
        "Ġ",
        "H"
      ],
      [
        "e",
        "b"
      ],
      [
        "4",
        "1"
      ],
      [
        "9",
        "8"
      ],
      [
        "er",
        "v"
      ],
      [
        "Ġ",
        "at"
      ],
      [
        "l",
        "l"
      ],
      [
        "čĊčĊ",
        "čĊčĊ"
      ],
      [
        "p",
        "roduction"
      ],
      [
        "Ġth",
        "is"
      ],
      [
        "cont",
        "ent"
      ],
      [
        "c",
        "i"
      ],
      [
        "ĠT",
        "h"
      ],
      [
        "/",
        ">"
      ],
      [
        "art",
        "ner"
      ],
      [
        "g",
        "lassdoor"
      ],
      [
        "Ġf",
        "rom"
      ],
      [
        "100",
        "96"
      ],
      [
        "1",
        "0"
      ],
      [
        "ac",
        "t"
      ],
      [
        "Ġ",
        "n"
      ],
      [
        "imag",
        "es"
      ],
      [
        "Ġ",
        "O"
      ],
      [
        "gsour",
        "ce"
      ],
      [
        "Ġb",
        "e"
      ],
      [
        "e",
        "am"
      ],
      [
        "s",
        "h"
      ],
      [
        "ou",
        "t"
      ],
      [
        "o",
        "m"
      ],
      [
        "ac",
        "h"
      ],
      [
        "Ĥ",
        "¹"
      ],
      [
        "2",
        "1"
      ],
      [
        "al",
        "l"
      ],
      [
        "Ġ",
        "3"
      ],
      [
        "iv",
        "e"
      ],
      [
        "a",
        "ik"
      ],
      [
        "====",
        "===="
      ],
      [
        "in",
        "e"
      ],
      [
        "i",
        "a"
      ],
      [
        "of",
        "t"
      ],
      [
        "medi",
        "um"
      ],
      [
        "s",
        "end"
      ],
      [
        "il",
        "esh"
      ],
      [
        "Ġa",
        "re"
      ],
      [
        "26",
        "3"
      ],
      [
        "cd",
        "n"
      ],
      [
        "o",
        "v"
      ],
      [
        "a",
        "il"
      ],
      [
        "________",
        "________"
      ],
      [
        "0",
        "9"
      ],
      [
        "w",
        "ad"
      ],
      [
        "mail",
        "to"
      ],
      [
        "ed",
        "f"
      ],
      [
        "gr",
        "id"
      ],
      [
        "send",
        "grid"
      ],
      [
        "4",
        "3"
      ],
      [
        "m",
        "ca"
      ],
      [
        "mca",
        "uto"
      ],
      [
        "Ġ",
        "&"
      ],
      [
        "nolog",
        "ies"
      ],
      [
        "an",
        "t"
      ],
      [
        "ac",
        "k"
      ],
      [
        "a",
        "p"
      ],
      [
        "f",
        "or"
      ],
      [
        "ĠM",
        "anag"
      ],
      [
        "čĊčĊ",
        "čĊč"
      ],
      [
        "il",
        "l"
      ],
      [
        "5",
        "6"
      ],
      [
        "ec",
        "ur"
      ],
      [
        "Ġ",
        "*"
      ],
      [
        "aik",
        "wad"
      ],
      [
        "o",
        "t"
      ],
      [
        "oo",
        "k"
      ],
      [
        "3",
        "8"
      ],
      [
        "d",
        "d"
      ],
      [
        "ecur",
        "ity"
      ],
      [
        "a",
        "i"
      ],
      [
        "]",
        "<"
      ],
      [
        "o",
        "re"
      ],
      [
        "an",
        "ce"
      ],
      [
        "Ġno",
        "t"
      ],
      [
        "av",
        "e"
      ],
      [
        "ist",
        "ing"
      ],
      [
        "o",
        "d"
      ],
      [
        ">",
        ";"
      ],
      [
        "Ġ",
        "con"
      ],
      [
        "u",
        "id"
      ],
      [
        "h",
        "ar"
      ],
      [
        "e",
        "f"
      ],
      [
        "for",
        "m"
      ],
      [
        "J",
        "O"
      ],
      [
        "čĊ",
        "čĊč"
      ],
      [
        "1",
        "6"
      ],
      [
        "4",
        "4"
      ],
      [
        "Ġ",
        "V"
      ],
      [
        "I",
        "d"
      ],
      [
        "com",
        "m"
      ],
      [
        "a",
        "k"
      ],
      [
        "ĠI",
        "T"
      ],
      [
        "----",
        "----"
      ],
      [
        "4",
        "8"
      ],
      [
        "at",
        "ed"
      ],
      [
        "k",
        "s"
      ],
      [
        "ion",
        "s"
      ],
      [
        "s",
        "p"
      ],
      [
        "Ġp",
        "ro"
      ],
      [
        "Ġ",
        "g"
      ],
      [
        "ĠP",
        "une"
      ],
      [
        "f",
        "f"
      ],
      [
        "4",
        "0"
      ],
      [
        "com",
        "p"
      ],
      [
        "2",
        "3"
      ],
      [
        "s",
        "c"
      ],
      [
        "el",
        "l"
      ],
      [
        "G",
        "D"
      ],
      [
        "i",
        "ce"
      ],
      [
        "ess",
        "age"
      ],
      [
        "b",
        "e"
      ],
      [
        "job",
        "L"
      ],
      [
        "c",
        "c"
      ],
      [
        "Ġ",
        "any"
      ],
      [
        "jobL",
        "isting"
      ],
      [
        "f",
        "er"
      ],
      [
        "5",
        "1"
      ],
      [
        "Ġ",
        "["
      ],
      [
        "y",
        "b"
      ],
      [
        "al",
        "ert"
      ],
      [
        "JO",
        "B"
      ],
      [
        "6",
        "9"
      ],
      [
        "l",
        "ink"
      ],
      [
        "b",
        "ook"
      ],
      [
        "g",
        "ard"
      ],
      [
        "s",
        "oft"
      ],
      [
        "r",
        "u"
      ],
      [
        "s",
        "andeep"
      ],
      [
        "Ġ",
        "K"
      ],
      [
        "c",
        "l"
      ],
      [
        "i",
        "ew"
      ],
      [
        "a",
        "ce"
      ],
      [
        "2",
        "7"
      ],
      [
        "qu",
        "est"
      ],
      [
        "Ġe",
        "x"
      ],
      [
        "2",
        "8"
      ],
      [
        "ic",
        "ation"
      ],
      [
        "4",
        "6"
      ],
      [
        "Ġ20",
        "26"
      ],
      [
        "Ġ",
        "us"
      ],
      [
        "7",
        "8"
      ],
      [
        "Ġ",
        "r"
      ],
      [
        "job",
        "Alert"
      ],
      [
        "job",
        "alert"
      ],
      [
        "jobAlert",
        "Alert"
      ],
      [
        "Ġre",
        "ce"
      ],
      [
        "c",
        "b"
      ],
      [
        "job",
        "pos"
      ],
      [
        "em",
        "ent"
      ],
      [
        "âĢ",
        "Ļ"
      ],
      [
        "Ġ",
        "as"
      ],
      [
        "ic",
        "ro"
      ],
      [
        "s",
        "e"
      ],
      [
        "pp",
        "ort"
      ],
      [
        "n",
        "d"
      ],
      [
        "M",
        "D"
      ],
      [
        "Ġ",
        "v"
      ],
      [
        "icro",
        "soft"
      ],
      [
        "p",
        "r"
      ],
      [
        "r",
        "al"
      ],
      [
        "en",
        "ce"
      ],
      [
        "Ġ",
        "\""
      ],
      [
        "Ġ",
        "it"
      ],
      [
        "Ġ",
        "our"
      ],
      [
        "Ġre",
        "p"
      ],
      [
        "0",
        "6"
      ],
      [
        "A",
        "D"
      ],
      [
        "1",
        "8"
      ],
      [
        "2",
        "9"
      ],
      [
        "ĠG",
        "source"
      ],
      [
        "f",
        "r"
      ],
      [
        "e",
        "e"
      ],
      [
        "00",
        "00"
      ],
      [
        "ou",
        "d"
      ],
      [
        "ĠP",
        "ark"
      ],
      [
        "im",
        "e"
      ],
      [
        "7",
        "7"
      ],
      [
        "gard",
        "s"
      ],
      [
        "3",
        "9"
      ],
      [
        "i",
        "re"
      ],
      [
        "v",
        "t"
      ],
      [
        "ĠS",
        "andeep"
      ],
      [
        "sc",
        "ri"
      ],
      [
        "ĠManag",
        "er"
      ],
      [
        "ub",
        "scri"
      ],
      [
        "i",
        "z"
      ],
      [
        "Ġp",
        "lease"
      ],
      [
        "Ġw",
        "ill"
      ],
      [
        "čĊ",
        "Ġ"
      ],
      [
        "ace",
        "book"
      ],
      [
        "c",
        "s"
      ],
      [
        "Ġâ",
        "Ĥ¹"
      ],
      [
        "4",
        "5"
      ],
      [
        "um",
        "b"
      ],
      [
        "in",
        "ess"
      ],
      [
        "Ġ",
        "cont"
      ],
      [
        "1",
        "3"
      ],
      [
        "i",
        "al"
      ],
      [
        "a",
        "f"
      ],
      [
        "Ġh",
        "ave"
      ],
      [
        "ĠTech",
        "nologies"
      ],
      [
        "t",
        "g"
      ],
      [
        "Ġm",
        "essage"
      ],
      [
        "us",
        "iness"
      ],
      [
        "u",
        "pport"
      ],
      [
        "9",
        "1"
      ],
      [
        "el",
        "iv"
      ],
      [
        "ent",
        "ral"
      ],
      [
        "Ġd",
        "o"
      ],
      [
        "c",
        "k"
      ],
      [
        "r",
        "iv"
      ],
      [
        "oo",
        "d"
      ],
      [
        "P",
        "une"
      ],
      [
        "t",
        "ech"
      ],
      [
        "ht",
        "m"
      ],
      [
        "as",
        "h"
      ],
      [
        "Ġ",
        "+"
      ],
      [
        "er",
        "e"
      ],
      [
        "ic",
        "es"
      ],
      [
        "eliv",
        "er"
      ],
      [
        "D",
        "C"
      ],
      [
        "a",
        "in"
      ],
      [
        "v",
        "a"
      ],
      [
        "Ġat",
        "t"
      ],
      [
        "6",
        "0"
      ],
      [
        "ĠU",
        "S"
      ],
      [
        "en",
        "i"
      ],
      [
        "00",
        "1"
      ],
      [
        "Ġb",
        "y"
      ],
      [
        "ed",
        "in"
      ],
      [
        "Ġth",
        "at"
      ],
      [
        "h",
        "o"
      ],
      [
        "Ġ",
        "up"
      ],
      [
        "ab",
        "le"
      ],
      [
        "9",
        "5"
      ],
      [
        "u",
        "d"
      ],
      [
        "11",
        "01"
      ],
      [
        "T",
        "o"
      ],
      [
        "s",
        "ubscri"
      ],
      [
        "9",
        "2"
      ],
      [
        "Ġ",
        "J"
      ],
      [
        "ub",
        "ai"
      ],
      [
        "f",
        "acebook"
      ],
      [
        "link",
        "edin"
      ],
      [
        "a",
        "h"
      ],
      [
        "e",
        "v"
      ],
      [
        "Ġw",
        "e"
      ],
      [
        "es",
        "ign"
      ],
      [
        "Ġ",
        "Íı"
      ],
      [
        "yb",
        "er"
      ],
      [
        "4",
        "7"
      ],
      [
        "D",
        "D"
      ],
      [
        "subscri",
        "be"
      ],
      [
        "ĠTh",
        "is"
      ],
      [
        "Ġ",
        "co"
      ],
      [
        "un",
        "t"
      ],
      [
        "l",
        "oud"
      ],
      [
        "Ġs",
        "t"
      ],
      [
        "eni",
        "or"
      ],
      [
        "no",
        "w"
      ],
      [
        "w",
        "ood"
      ],
      [
        "Ġ",
        "k"
      ],
      [
        "âĢ",
        "Į"
      ],
      [
        "or",
        "k"
      ],
      [
        "Ġ",
        "Y"
      ],
      [
        "ig",
        "ht"
      ],
      [
        "Th",
        "an"
      ],
      [
        "6",
        "7"
      ],
      [
        "I",
        "E"
      ],
      [
        "ol",
        "ly"
      ],
      [
        "A",
        "E"
      ],
      [
        "av",
        "an"
      ],
      [
        "Ġ",
        "en"
      ],
      [
        "Ġt",
        "r"
      ],
      [
        "id",
        "ent"
      ],
      [
        "y",
        "st"
      ],
      [
        "on",
        "e"
      ],
      [
        "Ġs",
        "h"
      ],
      [
        "olly",
        "wood"
      ],
      [
        "3",
        "7"
      ],
      [
        "Ġt",
        "eam"
      ],
      [
        "30",
        "21"
      ],
      [
        "ic",
        "k"
      ],
      [
        "e",
        "ar"
      ],
      [
        "m",
        "s"
      ],
      [
        "1",
        "9"
      ],
      [
        "*",
        "*"
      ],
      [
        "0",
        "5"
      ],
      [
        "2",
        "2"
      ],
      [
        "4",
        "9"
      ],
      [
        "u",
        "e"
      ],
      [
        "j",
        "r"
      ],
      [
        "g",
        "e"
      ],
      [
        "F",
        "E"
      ],
      [
        "el",
        "y"
      ],
      [
        "g",
        "aikwad"
      ],
      [
        "er",
        "i"
      ],
      [
        "erv",
        "ices"
      ],
      [
        "/",
        "?"
      ],
      [
        "H",
        "i"
      ],
      [
        "ic",
        "s"
      ],
      [
        "Ġ",
        "ma"
      ],
      [
        "co",
        "unt"
      ],
      [
        "1",
        "5"
      ],
      [
        "Ġ",
        "an"
      ],
      [
        "Ġ",
        "op"
      ],
      [
        "ic",
        "al"
      ],
      [
        "========",
        "========"
      ],
      [
        "n",
        "t"
      ],
      [
        "Ġ",
        "https"
      ],
      [
        "b",
        "f"
      ],
      [
        "h",
        "an"
      ],
      [
        "ĠT",
        "eam"
      ],
      [
        "L",
        "U"
      ],
      [
        "ru",
        "va"
      ],
      [
        "0",
        "8"
      ],
      [
        "re",
        "e"
      ],
      [
        "lo",
        "or"
      ],
      [
        "Ġw",
        "h"
      ],
      [
        "gsource",
        "tech"
      ],
      [
        "r",
        "c"
      ],
      [
        "ĠI",
        "f"
      ],
      [
        "ol",
        "ut"
      ],
      [
        "Ġ",
        "im"
      ],
      [
        "Ġm",
        "ore"
      ],
      [
        "s",
        "qu"
      ],
      [
        "Ġ20",
        "25"
      ],
      [
        "3",
        "5"
      ],
      [
        "squ",
        "are"
      ],
      [
        "i",
        "ent"
      ],
      [
        "Ġ",
        "un"
      ],
      [
        "ĠG",
        "aikwad"
      ],
      [
        "čĊčĊ",
        "Ġ"
      ],
      [
        "end",
        "er"
      ],
      [
        "is",
        "h"
      ],
      [
        "24",
        "8"
      ],
      [
        "A",
        "G"
      ],
      [
        "B",
        "A"
      ],
      [
        "q",
        "l"
      ],
      [
        "Ġm",
        "e"
      ],
      [
        "ub",
        "e"
      ],
      [
        "5",
        "11"
      ],
      [
        "ĠIn",
        "d"
      ],
      [
        "2",
        "24"
      ],
      [
        "t",
        "k"
      ],
      [
        "Ġa",
        "dd"
      ],
      [
        "Ġcon",
        "f"
      ],
      [
        "8",
        "00"
      ],
      [
        "on",
        "d"
      ],
      [
        "et",
        "ing"
      ],
      [
        "ĠR",
        "ing"
      ],
      [
        "ment",
        "s"
      ],
      [
        "o",
        "ho"
      ],
      [
        "a",
        "o"
      ],
      [
        "e",
        "ed"
      ],
      [
        "l",
        "d"
      ],
      [
        "C",
        "entral"
      ],
      [
        "I",
        "M"
      ],
      [
        "O",
        "R"
      ],
      [
        "ĠP",
        "ro"
      ],
      [
        "J",
        "A"
      ],
      [
        "p",
        "s"
      ],
      [
        "20",
        "3"
      ],
      [
        "yst",
        "em"
      ],
      [
        "1",
        "4"
      ],
      [
        "o",
        "k"
      ],
      [
        "I",
        "n"
      ],
      [
        "p",
        "artner"
      ],
      [
        "Ġâ",
        "ĺ"
      ],
      [
        "g",
        "o"
      ],
      [
        "Ġc",
        "an"
      ],
      [
        "Ġâĺ",
        "ħ"
      ],
      [
        "â",
        "Ĥ¹"
      ],
      [
        "ation",
        "s"
      ],
      [
        "c",
        "count"
      ],
      [
        "|",
        "%"
      ],
      [
        "it",
        "ed"
      ],
      [
        "Ġ",
        ":"
      ],
      [
        "8",
        "5"
      ],
      [
        "N",
        "D"
      ],
      [
        "an",
        "er"
      ],
      [
        "R",
        "e"
      ],
      [
        "a",
        "a"
      ],
      [
        "g",
        "uid"
      ],
      [
        "b",
        "d"
      ],
      [
        "v",
        "iew"
      ],
      [
        "98",
        "3"
      ],
      [
        "lo",
        "w"
      ],
      [
        "Ġex",
        "p"
      ],
      [
        "Ġrece",
        "iv"
      ],
      [
        "ĠRing",
        "Central"
      ],
      [
        "Ġ",
        "comp"
      ],
      [
        "h",
        "a"
      ],
      [
        "04",
        "3"
      ],
      [
        "er",
        "ed"
      ],
      [
        "i",
        "x"
      ],
      [
        "s",
        "rc"
      ],
      [
        "cc",
        "ess"
      ],
      [
        "Ġa",
        "pp"
      ],
      [
        "ĠF",
        "loor"
      ],
      [
        "n",
        "ilesh"
      ],
      [
        "o",
        "in"
      ],
      [
        "at",
        "i"
      ],
      [
        "re",
        "ss"
      ],
      [
        "ĠS",
        "h"
      ],
      [
        "Ġd",
        "esign"
      ],
      [
        "ĠRe",
        "gards"
      ],
      [
        "ĠD",
        "ubai"
      ],
      [
        "comm",
        "un"
      ],
      [
        "e",
        "y"
      ],
      [
        "g",
        "a"
      ],
      [
        "11",
        "36"
      ],
      [
        "log",
        "o"
      ],
      [
        "M",
        "z"
      ],
      [
        "d",
        "f"
      ],
      [
        "o",
        "ci"
      ],
      [
        "S",
        "enior"
      ],
      [
        "1136",
        "043"
      ],
      [
        "r",
        "an"
      ],
      [
        "0000",
        "01"
      ],
      [
        "Ġ",
        "if"
      ],
      [
        "Ġin",
        "t"
      ],
      [
        "ĠR",
        "ep"
      ],
      [
        "j",
        "p"
      ],
      [
        "anag",
        "e"
      ],
      [
        "uid",
        "o"
      ],
      [
        "DC",
        "D"
      ],
      [
        "7",
        "983"
      ],
      [
        "99",
        "17"
      ],
      [
        "58",
        "09"
      ],
      [
        "Ġs",
        "ender"
      ],
      [
        "ĠInd",
        "ia"
      ],
      [
        "ab",
        "il"
      ],
      [
        "Ġre",
        "sp"
      ],
      [
        "IE",
        "W"
      ],
      [
        "V",
        "IEW"
      ],
      [
        "Ġs",
        "ecurity"
      ],
      [
        "ĠS",
        "t"
      ],
      [
        "AA",
        "AG"
      ],
      [
        "ĠĠĠĠĠĠĠĠ",
        "ĠĠĠĠĠĠĠĠ"
      ],
      [
        "jobListing",
        "Id"
      ],
      [
        "y",
        "ul"
      ],
      [
        "jr",
        "tk"
      ],
      [
        ",",
        "%"
      ],
      [
        "g",
        "ist"
      ],
      [
        "w",
        "are"
      ],
      [
        "Ġin",
        "form"
      ],
      [
        "76",
        "41"
      ],
      [
        "ĠE",
        "st"
      ],
      [
        "tg",
        "t"
      ],
      [
        "30",
        "7641"
      ],
      [
        "307641",
        "248"
      ],
      [
        "L",
        "C"
      ],
      [
[...]
